<unk>	0
<s>	0
</s>	0
s	-3.10708
,	-3.35682
▁the	-3.38072
.	-3.38944
▁and	-3.93372
▁of	-4.00264
▁a	-4.2193
▁to	-4.24928
▁in	-4.36134
▁	-4.8521
ed	-4.88911
▁was	-4.97322
d	-4.98341
ing	-5.03255
▁The	-5.16805
-	-5.19301
'	-5.23096
▁(	-5.26724
▁is	-5.28863
t	-5.31956
)	-5.40456
▁for	-5.46295
y	-5.48823
▁"	-5.48972
▁that	-5.50388
▁with	-5.5094
n	-5.52681
e	-5.56599
▁as	-5.62085
er	-5.64072
▁on	-5.65817
▁by	-5.68745
▁it	-5.72087
ly	-5.7916
al	-5.8056
o	-5.89267
▁his	-5.94396
▁he	-6.00785
▁be	-6.0143
▁from	-6.02981
b	-6.03522
▁are	-6.03856
▁He	-6.05367
r	-6.06339
▁A	-6.11319
▁In	-6.12343
:	-6.13003
in	-6.13194
es	-6.13771
a	-6.14853
▁an	-6.19768
▁at	-6.19787
th	-6.21413
▁–	-6.24222
▁her	-6.24365
i	-6.25269
▁not	-6.25966
▁were	-6.27129
or	-6.28065
▁or	-6.30144
g	-6.30306
▁had	-6.3301
m	-6.33354
▁re	-6.34095
▁She	-6.38571
▁S	-6.4138
▁They	-6.43779
l	-6.45195
▁which	-6.4646
"	-6.4691
p	-6.47393
re	-6.479
le	-6.48269
▁I	-6.48501
an	-6.52063
ic	-6.53526
▁have	-6.55712
c	-6.56645
▁but	-6.56763
S	-6.57213
▁so	-6.59493
▁C	-6.62946
ation	-6.63571
el	-6.63692
▁said	-6.63863
▁their	-6.63879
▁she	-6.6489
us	-6.66898
▁time	-6.67656
▁they	-6.67673
on	-6.68363
▁de	-6.71172
u	-6.72282
ar	-6.72445
en	-6.74437
A	-6.74828
k	-6.74915
▁It	-6.75365
▁also	-6.75823
▁day	-6.76326
C	-6.77794
il	-6.78708
▁can	-6.82096
▁has	-6.84218
h	-6.85155
ur	-6.85523
▁Lily	-6.85779
I	-6.87559
),	-6.88549
;	-6.89768
▁18	-6.90186
▁all	-6.90361
▁other	-6.91728
ion	-6.923
▁one	-6.93612
it	-6.95119
w	-6.95674
▁this	-6.95765
▁there	-6.98002
at	-7.01311
st	-7.01605
ra	-7.01866
▁first	-7.01962
f	-7.03204
▁you	-7.03747
▁s	-7.0518
M	-7.05657
▁E	-7.06535
ro	-7.07166
."	-7.07422
▁who	-7.07679
P	-7.09839
▁B	-7.10088
ch	-7.10193
▁its	-7.10671
T	-7.11232
▁been	-7.12905
ta	-7.13073
li	-7.1334
▁very	-7.13545
▁up	-7.14072
te	-7.14605
▁K	-7.14674
▁American	-7.14704
ity	-7.14749
▁more	-7.15929
ry	-7.16085
ist	-7.1677
id	-7.16797
ian	-7.17042
is	-7.17351
▁would	-7.18308
▁p	-7.18927
ter	-7.20898
).	-7.21473
▁some	-7.21614
ma	-7.21893
▁F	-7.22053
▁into	-7.22905
ers	-7.22969
▁him	-7.23153
ll	-7.23399
z	-7.24054
ia	-7.24196
ri	-7.24398
la	-7.25094
D	-7.25172
ive	-7.25766
_	-7.26063
▁M	-7.2656
x	-7.27114
de	-7.27303
ate	-7.27768
▁G	-7.2796
▁two	-7.28113
▁such	-7.28171
▁over	-7.28318
▁P	-7.28385
▁out	-7.28425
et	-7.289
ce	-7.29138
!	-7.29165
▁them	-7.29236
▁play	-7.29336
▁new	-7.30354
▁when	-7.30635
ir	-7.30665
▁little	-7.30672
▁used	-7.3084
ne	-7.30904
▁no	-7.31226
▁D	-7.31543
able	-7.31569
ine	-7.32109
se	-7.32307
na	-7.32446
▁T	-7.32789
▁One	-7.33559
E	-7.34833
ent	-7.35838
ment	-7.35854
to	-7.35903
B	-7.37231
am	-7.37446
man	-7.38528
ol	-7.3877
▁saw	-7.3891
ary	-7.39581
▁con	-7.4044
▁e	-7.40656
ul	-7.40999
▁big	-7.41463
tic	-7.41627
▁Re	-7.41754
ad	-7.42152
um	-7.42275
▁mom	-7.42462
▁happy	-7.42851
▁after	-7.44214
–	-7.44659
▁than	-7.44754
un	-7.44939
ism	-7.44996
▁1	-7.46585
L	-7.46925
▁most	-7.47075
age	-7.47812
O	-7.48465
▁do	-7.48966
lo	-7.48974
▁This	-7.4961
▁U	-7.49662
▁made	-7.49831
as	-7.50036
▁un	-7.50494
me	-7.50545
vi	-7.51588
▁co	-7.51614
▁O	-7.52101
▁about	-7.52231
▁R	-7.52876
ton	-7.53236
▁could	-7.55322
▁only	-7.5574
▁many	-7.55814
▁go	-7.55964
R	-7.56216
ated	-7.56499
▁found	-7.57358
▁Ma	-7.57558
▁upon	-7.57654
F	-7.57802
est	-7.58116
ies	-7.58497
/	-7.58686
▁Once	-7.5872
▁like	-7.58983
im	-7.59139
(	-7.59147
▁back	-7.59316
▁use	-7.59668
ck	-7.59996
▁between	-7.60135
▁De	-7.60417
!"	-7.62183
▁W	-7.62657
ge	-7.62839
▁part	-7.64409
ci	-7.65014
ant	-7.65699
▁(19	-7.65791
▁around	-7.66368
▁New	-7.66642
▁pro	-7.67172
▁under	-7.67217
the	-7.67327
▁make	-7.67403
▁wanted	-7.67864
▁Ben	-7.68586
▁United	-7.68889
2	-7.69126
▁c	-7.69526
ni	-7.69934
co	-7.70026
N	-7.70162
▁if	-7.70791
▁may	-7.71297
▁girl	-7.71766
mo	-7.72072
▁end	-7.72191
▁where	-7.73215
▁19	-7.73674
▁people	-7.73768
".	-7.73774
▁N	-7.73884
▁2	-7.74027
son	-7.74217
▁number	-7.74344
▁did	-7.74513
▁me	-7.74765
▁will	-7.74954
▁3	-7.75046
▁b	-7.75652
▁went	-7.75692
▁An	-7.75751
pe	-7.75939
ve	-7.76204
op	-7.76253
▁Al	-7.76583
▁years	-7.77219
▁named	-7.77382
ty	-7.77891
▁w	-7.79747
ie	-7.80201
▁during	-7.80382
ot	-7.80604
no	-7.81043
▁Tom	-7.81078
min	-7.81124
▁17	-7.81211
▁Ba	-7.81317
▁L	-7.81575
ig	-7.81772
▁what	-7.82011
nd	-7.82125
▁La	-7.82331
ted	-7.82336
▁see	-7.82337
ke	-7.82744
▁Le	-7.82818
▁dis	-7.83108
▁But	-7.83127
▁man	-7.83497
▁we	-7.83689
G	-7.83926
ance	-7.84071
▁both	-7.84125
▁called	-7.84425
▁then	-7.8445
▁ch	-7.84517
H	-7.85235
om	-7.85699
▁H	-7.86094
▁being	-7.86191
and	-7.86418
ho	-7.86696
▁For	-7.87287
▁pre	-7.87343
▁while	-7.8736
▁help	-7.87506
▁So	-7.87516
▁War	-7.87657
da	-7.88223
go	-7.88453
▁St	-7.88798
di	-7.893
▁home	-7.89368
▁English	-7.89456
▁fun	-7.90406
▁known	-7.90831
▁became	-7.91149
1	-7.91187
sh	-7.91716
der	-7.91851
▁Pa	-7.92041
▁John	-7.92203
ical	-7.92379
▁name	-7.92392
ut	-7.92453
▁form	-7.9298
ence	-7.93229
ous	-7.93295
ga	-7.93716
be	-7.93801
va	-7.9382
▁car	-7.93918
▁three	-7.94069
▁Bo	-7.94226
▁each	-7.94374
▁As	-7.94615
v	-7.94661
▁16	-7.94927
ex	-7.94939
▁States	-7.95002
▁through	-7.95112
?"	-7.95437
▁friends	-7.95696
ial	-7.96021
",	-7.96216
00	-7.96284
▁work	-7.96662
hi	-7.97441
▁later	-7.98245
ard	-7.9843
▁any	-7.98564
▁system	-7.98819
▁Mo	-7.98868
ow	-7.98954
▁because	-7.99121
▁well	-7.99328
▁On	-7.99615
ish	-7.9966
▁4	-8.00305
▁V	-8.00342
▁15	-8.00584
mi	-8.00819
V	-8.01076
ag	-8.01101
▁set	-8.01346
▁too	-8.02201
tra	-8.02278
▁Mar	-8.02521
os	-8.02666
▁Timmy	-8.0269
▁including	-8.03912
▁these	-8.04114
▁down	-8.04229
ide	-8.04457
mer	-8.04513
▁Li	-8.04822
▁until	-8.04953
▁came	-8.05459
▁German	-8.05765
é	-8.05855
▁government	-8.05995
▁state	-8.0625
▁comp	-8.06253
▁world	-8.0632
ff	-8.06554
▁century	-8.06608
po	-8.06634
ell	-8.06796
▁asked	-8.06947
▁felt	-8.07203
▁Ra	-8.07849
▁di	-8.07979
▁take	-8.08057
▁To	-8.08094
▁per	-8.08116
▁Me	-8.08619
U	-8.0865
▁Con	-8.08781
ill	-8.0882
▁Ro	-8.0893
ap	-8.09139
ha	-8.0922
▁f	-8.09426
▁before	-8.09898
▁together	-8.09922
ba	-8.10045
3	-8.10315
▁much	-8.10337
▁loved	-8.10378
▁Be	-8.10385
▁high	-8.10488
ally	-8.10513
ting	-8.10967
▁ra	-8.11194
▁ran	-8.11499
▁=	-8.11569
▁water	-8.11698
▁started	-8.11736
mon	-8.11756
nt	-8.11868
▁ex	-8.11873
▁include	-8.12179
▁en	-8.12264
dy	-8.13355
▁boy	-8.13476
▁long	-8.13514
▁film	-8.13823
▁year	-8.13874
▁took	-8.14275
land	-8.14363
che	-8.1438
▁'	-8.14607
▁again	-8.14815
▁British	-8.15183
▁His	-8.15446
▁same	-8.15559
tri	-8.15624
▁French	-8.15674
▁away	-8.15924
▁put	-8.16233
▁early	-8.16253
▁war	-8.16272
od	-8.16313
▁Co	-8.16497
ven	-8.16696
▁looked	-8.16712
j	-8.17019
▁5	-8.17234
up	-8.17452
▁smiled	-8.17553
▁We	-8.17903
▁want	-8.18074
▁d	-8.18166
mp	-8.18187
▁Ha	-8.18464
▁different	-8.18593
▁Ca	-8.18761
em	-8.18971
ized	-8.19092
▁ma	-8.19282
▁bird	-8.19287
▁When	-8.19428
ite	-8.197
ru	-8.19962
▁You	-8.20331
ction	-8.20337
▁At	-8.20384
▁even	-8.20471
les	-8.20611
▁After	-8.20694
ner	-8.20782
▁small	-8.20953
W	-8.21009
tion	-8.21085
bo	-8.2116
do	-8.21236
con	-8.21261
▁J	-8.21774
ac	-8.2209
ating	-8.2227
▁friend	-8.22323
]	-8.22337
▁example	-8.22433
▁v	-8.22544
▁Ho	-8.22597
▁city	-8.22675
▁show	-8.22861
▁against	-8.22949
he	-8.22999
▁my	-8.23366
ling	-8.23448
▁second	-8.23483
0	-8.23713
▁often	-8.23715
▁World	-8.24043
ward	-8.24045
▁place	-8.24153
ator	-8.24176
ca	-8.24752
ger	-8.24871
▁Her	-8.24872
▁10	-8.25492
bu	-8.25576
▁sub	-8.25768
ran	-8.26042
ka	-8.26164
—	-8.26215
▁power	-8.26311
qui	-8.26442
▁sp	-8.26832
▁park	-8.27147
▁Do	-8.27268
▁University	-8.27555
▁special	-8.2768
per	-8.27791
▁Roman	-8.27831
lu	-8.27864
▁20	-8.27889
ology	-8.2813
▁find	-8.28189
▁line	-8.28393
▁good	-8.28817
ti	-8.28971
▁point	-8.2898
one	-8.29016
▁Z	-8.29131
▁something	-8.29188
▁way	-8.29253
ang	-8.29257
▁Car	-8.29506
▁po	-8.2966
▁Sa	-8.29709
tor	-8.29755
ak	-8.29757
▁own	-8.29882
red	-8.29992
▁says	-8.30537
5	-8.30628
▁life	-8.30782
▁Se	-8.31011
ach	-8.31015
ster	-8.31129
▁gr	-8.31361
▁Po	-8.3145
▁still	-8.31698
▁player	-8.31706
ron	-8.31721
▁since	-8.32626
ver	-8.3268
▁result	-8.32833
ations	-8.3291
▁tree	-8.32917
ium	-8.33022
▁just	-8.33051
▁6	-8.33104
gu	-8.33477
lin	-8.33803
▁bi	-8.34333
▁st	-8.34455
ten	-8.34475
ship	-8.34544
▁Ne	-8.3501
▁May	-8.35248
ub	-8.35557
▁Ta	-8.35567
▁Na	-8.3573
▁(20	-8.35876
ny	-8.35878
▁Sam	-8.36335
,"	-8.36338
▁Tim	-8.36426
ther	-8.36662
▁several	-8.369
lic	-8.37063
€	-8.37113
▁thought	-8.37125
▁how	-8.3726
ring	-8.37284
au	-8.37343
▁k	-8.37347
▁However	-8.37459
4	-8.37922
▁Vi	-8.38178
▁Lo	-8.38273
▁began	-8.384
que	-8.3883
▁law	-8.39575
▁order	-8.39689
▁group	-8.39708
ness	-8.39729
▁playing	-8.3984
und	-8.39893
▁7	-8.40391
▁get	-8.40438
▁Mi	-8.40468
▁cl	-8.4052
▁game	-8.40579
▁inter	-8.4074
▁There	-8.40793
▁la	-8.41243
▁large	-8.41276
▁8	-8.41399
▁sad	-8.41469
ice	-8.41477
▁support	-8.41643
ect	-8.41783
ber	-8.41791
▁decided	-8.4184
▁Ka	-8.42116
▁come	-8.42213
ure	-8.42228
ative	-8.42623
▁outside	-8.42628
io	-8.42722
▁off	-8.42738
▁family	-8.42822
▁now	-8.43001
tro	-8.43009
▁population	-8.43472
▁always	-8.43503
▁|	-8.43599
pa	-8.43674
▁Pro	-8.43808
▁things	-8.44062
line	-8.44138
ng	-8.44301
▁period	-8.44351
▁house	-8.44394
▁se	-8.44438
▁run	-8.44541
▁country	-8.44605
▁never	-8.4495
gen	-8.45719
▁And	-8.45838
▁played	-8.46376
▁12	-8.46801
The	-8.46839
▁series	-8.46842
▁hand	-8.47052
▁mo	-8.47241
▁Ar	-8.47622
▁process	-8.47722
▁Di	-8.47803
▁non	-8.47837
val	-8.4828
▁language	-8.48409
▁old	-8.48467
▁Ch	-8.48632
com	-8.48634
mit	-8.48711
ities	-8.48846
▁National	-8.48888
▁South	-8.48932
▁Max	-8.48942
▁g	-8.49081
ah	-8.49479
▁human	-8.49746
we	-8.49777
▁land	-8.49915
▁cr	-8.49916
▁got	-8.49965
▁become	-8.50134
▁sh	-8.50331
▁death	-8.50583
K	-8.50611
ler	-8.50649
▁August	-8.50745
▁Gu	-8.50818
▁those	-8.50932
▁Fa	-8.51176
rs	-8.51415
=	-8.51577
▁four	-8.5163
▁pa	-8.51731
oc	-8.5184
led	-8.52082
end	-8.52438
ph	-8.52481
▁X	-8.52746
▁head	-8.52781
▁14	-8.52881
▁No	-8.53069
bi	-8.53121
▁based	-8.5329
▁bo	-8.53465
▁Te	-8.53538
▁From	-8.53569
form	-8.53672
▁US	-8.5374
▁million	-8.53892
ip	-8.53985
▁character	-8.54092
▁important	-8.54394
ful	-8.54605
ki	-8.54725
▁should	-8.54785
▁public	-8.54898
den	-8.54921
▁ro	-8.54952
▁9	-8.54987
▁January	-8.55064
ud	-8.55146
▁dog	-8.55459
▁term	-8.55614
cu	-8.55756
by	-8.55776
▁using	-8.55972
ient	-8.56259
▁every	-8.5629
▁function	-8.56364
▁ball	-8.5643
ions	-8.56449
▁ho	-8.56617
▁sc	-8.56735
▁your	-8.56767
ile	-8.57214
vo	-8.57356
▁II	-8.57447
ition	-8.57586
▁general	-8.57598
▁March	-8.57661
▁political	-8.57726
▁gave	-8.57984
tal	-8.58119
cc	-8.5812
act	-8.58138
ius	-8.58382
▁October	-8.58503
▁major	-8.58562
▁North	-8.587
▁Man	-8.58917
ning	-8.58961
▁York	-8.59109
▁another	-8.59174
▁music	-8.59474
ct	-8.59482
▁look	-8.59492
▁know	-8.59843
▁Hu	-8.59985
way	-8.60295
gi	-8.60366
▁common	-8.60369
▁design	-8.60486
rit	-8.60568
▁July	-8.60717
out	-8.60934
▁team	-8.61094
qu	-8.61299
▁vi	-8.61339
▁El	-8.61348
▁best	-8.61441
▁following	-8.61519
▁within	-8.61677
▁liked	-8.61735
▁ti	-8.6205
ual	-8.62057
▁September	-8.62143
▁June	-8.62231
▁among	-8.62343
▁i	-8.62382
▁field	-8.62537
▁excited	-8.62602
▁modern	-8.62996
▁due	-8.63155
▁area	-8.63289
▁imp	-8.63291
▁book	-8.63303
▁main	-8.63437
▁present	-8.63459
ens	-8.63503
▁These	-8.63513
▁December	-8.63606
▁11	-8.63666
old	-8.63975
▁does	-8.64139
▁last	-8.64307
▁record	-8.64473
▁tr	-8.64556
wa	-8.646
▁Har	-8.64607
▁Si	-8.64629
har	-8.64814
▁author	-8.64849
▁control	-8.65161
▁region	-8.65213
▁school	-8.65245
▁open	-8.65255
▁-	-8.6528
▁Da	-8.65464
▁Anna	-8.65559
▁li	-8.65601
▁h	-8.65633
tu	-8.65829
less	-8.65849
▁military	-8.65947
▁All	-8.66046
ab	-8.66057
▁April	-8.66124
ists	-8.6633
ris	-8.66355
▁Some	-8.66374
▁o	-8.66435
ze	-8.66451
▁lo	-8.66593
pl	-8.66739
ization	-8.66827
▁type	-8.66843
▁European	-8.66889
▁self	-8.66916
ley	-8.66922
▁light	-8.67022
▁late	-8.67035
▁rule	-8.67076
▁13	-8.67096
▁tri	-8.67104
▁along	-8.67239
▁right	-8.67244
▁popular	-8.67263
ee	-8.67302
▁space	-8.67389
▁Su	-8.6745
▁star	-8.67457
▁air	-8.67477
▁great	-8.67568
▁change	-8.67632
▁full	-8.67791
▁held	-8.68087
ep	-8.68439
–19	-8.68583
▁strong	-8.68762
▁short	-8.6897
cre	-8.6923
igh	-8.69254
▁led	-8.69328
ev	-8.69588
▁class	-8.69696
iv	-8.69727
▁didn	-8.69733
▁November	-8.69902
▁r	-8.69917
▁history	-8.70068
▁Ja	-8.70125
lar	-8.70142
▁left	-8.70313
cent	-8.70531
▁Mom	-8.70545
▁national	-8.70608
pro	-8.70734
log	-8.70958
day	-8.71066
▁scared	-8.71153
▁return	-8.71233
if	-8.71236
lation	-8.71255
▁le	-8.71377
▁al	-8.71381
▁hard	-8.71447
▁m	-8.71717
lan	-8.71835
▁Bar	-8.71881
lf	-8.71938
▁real	-8.72769
▁By	-8.72847
▁ca	-8.72848
▁idea	-8.72936
▁rest	-8.73002
ric	-8.7332
▁say	-8.73343
▁Go	-8.73474
▁give	-8.73513
▁Mu	-8.73526
han	-8.73575
▁need	-8.73586
J	-8.73672
▁King	-8.73822
▁politician	-8.74005
time	-8.74118
▁Ju	-8.74307
▁value	-8.7436
▁William	-8.74432
▁red	-8.74686
ified	-8.74687
▁few	-8.74743
▁published	-8.7481
our	-8.74854
ose	-8.74922
▁Per	-8.75116
▁Ni	-8.75232
▁development	-8.75309
▁close	-8.75406
men	-8.75601
cl	-8.75602
ick	-8.75674
▁version	-8.75732
▁without	-8.75795
ctor	-8.75873
pi	-8.75878
ham	-8.75939
▁Th	-8.76169
tan	-8.76232
king	-8.76382
▁model	-8.76418
▁Jo	-8.76512
air	-8.7654
▁Ri	-8.76634
▁next	-8.76762
▁Jack	-8.76804
▁mommy	-8.76804
▁fl	-8.76835
▁ne	-8.7694
▁February	-8.7708
▁Ru	-8.77262
▁similar	-8.77322
â	-8.77358
▁Cha	-8.7741
ological	-8.77537
istic	-8.77556
▁near	-8.77721
▁local	-8.77839
ome	-8.77906
▁told	-8.78031
nn	-8.7814
▁Europe	-8.78153
▁single	-8.78249
▁Ga	-8.7828
port	-8.78304
▁members	-8.7848
▁toys	-8.78508
side	-8.78588
ox	-8.786
▁arm	-8.788
10	-8.78818
▁considered	-8.78911
ize	-8.7913
▁having	-8.79223
▁inside	-8.79293
ore	-8.79336
▁love	-8.79423
gr	-8.7954
▁less	-8.79541
ving	-8.79551
serv	-8.79593
▁ten	-8.79602
fi	-8.79947
▁effect	-8.80024
▁better	-8.80043
▁Bu	-8.80326
▁Bi	-8.80458
▁art	-8.80566
▁France	-8.806
")	-8.80869
▁won	-8.80873
tur	-8.81155
▁given	-8.81465
ast	-8.81622
▁j	-8.81655
▁room	-8.81844
hu	-8.82016
▁cat	-8.82086
▁knew	-8.82281
▁must	-8.82369
▁side	-8.8237
▁countries	-8.82379
▁actor	-8.82462
ea	-8.82547
▁San	-8.82633
▁box	-8.82637
6	-8.82651
row	-8.82652
ier	-8.82899
▁ba	-8.82903
▁tried	-8.83039
▁top	-8.83397
▁Or	-8.83514
▁em	-8.83551
ue	-8.83553
▁Sp	-8.83721
▁anti	-8.8411
▁level	-8.84143
▁sun	-8.8437
▁role	-8.84439
▁ha	-8.84635
▁view	-8.84728
ture	-8.84898
▁Gra	-8.84963
mic	-8.85167
for	-8.85189
▁su	-8.85274
▁Christian	-8.85291
▁kind	-8.85428
▁bar	-8.85519
▁island	-8.85602
▁Other	-8.85661
):	-8.8572
ay	-8.85773
▁West	-8.85784
▁allow	-8.85844
▁issue	-8.86029
16	-8.86115
▁ground	-8.86228
▁President	-8.8623
▁free	-8.863
▁case	-8.86375
uff	-8.8647
▁source	-8.86533
my	-8.86563
ov	-8.86597
▁Church	-8.86613
▁Lu	-8.86665
▁am	-8.86708
During	-8.86746
▁former	-8.8677
▁Ab	-8.86772
▁act	-8.86828
▁International	-8.86997
▁sound	-8.87001
born	-8.87033
▁band	-8.8705
▁social	-8.87067
▁com	-8.87121
▁data	-8.87203
▁attack	-8.87267
▁bear	-8.87442
0,000	-8.87864
▁unit	-8.87872
▁states	-8.87996
▁developed	-8.88071
rd	-8.88122
[	-8.88183
low	-8.88193
▁program	-8.88298
▁contain	-8.88318
▁established	-8.88419
uch	-8.88521
▁object	-8.88583
tation	-8.88587
▁du	-8.88713
▁various	-8.88804
ise	-8.88889
▁Italian	-8.88925
ari	-8.89085
X	-8.89126
dic	-8.892
15	-8.89208
ey	-8.89212
á	-8.89248
za	-8.89266
ug	-8.89439
ates	-8.8944
ren	-8.89492
▁ge	-8.89538
▁song	-8.89655
▁standard	-8.89677
▁safe	-8.90014
▁ta	-8.90201
▁position	-8.90224
▁Ad	-8.9025
int	-8.90368
▁released	-8.90404
ack	-8.905
fer	-8.90625
▁London	-8.90644
▁provide	-8.9068
but	-8.91055
▁dad	-8.91063
▁food	-8.91215
▁Ex	-8.91226
lie	-8.91262
aw	-8.91483
pt	-8.91493
▁production	-8.91543
▁eat	-8.91622
ft	-8.91666
▁fire	-8.91703
▁Qu	-8.91729
▁method	-8.91744
▁Un	-8.9197
tin	-8.91972
▁children	-8.91998
▁test	-8.9204
nu	-8.92414
▁Germany	-8.9252
▁low	-8.92603
ai	-8.92611
▁included	-8.92619
▁According	-8.92696
▁exist	-8.92711
▁rock	-8.92716
▁season	-8.92791
▁hold	-8.92868
av	-8.9288
▁History	-8.92971
▁Cor	-8.93086
▁Pe	-8.93096
▁Can	-8.93198
▁problem	-8.93368
▁however	-8.9341
▁Greek	-8.93411
sa	-8.93653
▁original	-8.93729
▁list	-8.93813
▁pass	-8.93824
▁making	-8.93836
▁continued	-8.94147
▁wrote	-8.94159
▁story	-8.94214
▁Ke	-8.94235
▁America	-8.94247
ong	-8.94424
▁heard	-8.94536
ase	-8.94582
▁five	-8.94666
▁Island	-8.94733
▁largest	-8.94744
mm	-8.94746
?	-8.94789
str	-8.94811
▁mi	-8.94823
▁Com	-8.94838
▁Union	-8.94934
cor	-8.94958
▁himself	-8.94964
▁England	-8.94971
amp	-8.94991
▁seen	-8.95199
12	-8.95287
▁Soviet	-8.95553
▁Du	-8.95699
ised	-8.95701
▁sometimes	-8.95703
ments	-8.95778
▁def	-8.95794
▁theory	-8.95872
▁live	-8.96087
▁[	-8.96167
▁Col	-8.96231
▁fe	-8.96231
can	-8.96244
eg	-8.9626
▁ship	-8.96313
▁share	-8.96325
ana	-8.9647
▁member	-8.96568
▁total	-8.96568
ade	-8.96665
▁research	-8.9669
gue	-8.97095
▁References	-8.97096
▁usually	-8.9717
her	-8.97297
▁though	-8.97297
20	-8.97418
▁wave	-8.97579
of	-8.97721
▁East	-8.97727
▁post	-8.98052
▁sorry	-8.98086
▁structure	-8.9812
▁BC	-8.98158
▁consist	-8.98203
8	-8.98275
art	-8.98316
vel	-8.9836
▁cover	-8.98722
ake	-8.98852
▁face	-8.98929
▁although	-8.99021
▁Ge	-8.99048
▁writer	-8.9928
▁animals	-8.99371
len	-8.99477
▁written	-8.99589
ple	-8.99646
ries	-8.99669
▁See	-8.99759
▁economic	-8.99763
▁With	-8.99763
▁Sch	-8.99793
fa	-8.99849
▁trans	-8.99946
nes	-8.99993
part	-9.00171
▁attempt	-9.00201
ja	-9.00251
▁six	-9.00358
▁text	-9.00413
▁don	-9.00423
▁God	-9.00468
bit	-9.00554
▁success	-9.00792
▁men	-9.00858
▁election	-9.01062
▁0	-9.01143
▁key	-9.01289
cy	-9.01296
▁Air	-9.01523
ace	-9.01657
▁individual	-9.01699
car	-9.01724
par	-9.01727
ef	-9.01737
▁international	-9.01796
▁turn	-9.01885
struct	-9.01894
▁soon	-9.01896
▁na	-9.02138
▁product	-9.02146
ou	-9.02216
7	-9.0226
▁project	-9.02303
net	-9.02384
tch	-9.02388
▁Empire	-9.024
▁Indian	-9.02493
ker	-9.02493
▁Sha	-9.02602
▁person	-9.02799
tre	-9.02826
▁&	-9.02903
▁Pla	-9.02938
▁Pi	-9.02963
▁proud	-9.0297
van	-9.02982
▁novel	-9.03023
ko	-9.03024
▁keep	-9.03125
▁building	-9.03128
▁produced	-9.03155
▁China	-9.03165
50	-9.03263
tter	-9.03269
▁followed	-9.03288
▁official	-9.03292
▁pe	-9.03553
▁forces	-9.03603
▁son	-9.03623
ants	-9.03672
▁color	-9.03705
▁str	-9.0372
▁ob	-9.03761
ification	-9.03865
▁cell	-9.0393
ix	-9.03977
ever	-9.04008
chi	-9.04079
▁market	-9.04081
▁Sara	-9.04307
▁north	-9.0444
▁word	-9.04643
▁Y	-9.04689
▁cor	-9.04864
▁significant	-9.0487
▁study	-9.0489
▁party	-9.04917
80	-9.04959
▁learned	-9.04979
▁rate	-9.05038
▁us	-9.05041
▁interest	-9.05121
▁ste	-9.05232
▁far	-9.05248
▁material	-9.05291
▁sta	-9.05319
▁couldn	-9.0539
▁created	-9.05401
11	-9.05447
ible	-9.05832
pp	-9.05972
▁remain	-9.06098
▁women	-9.0618
▁lived	-9.06201
▁title	-9.06247
▁singer	-9.06315
▁Am	-9.06346
▁games	-9.06414
▁Dr	-9.06454
▁body	-9.06503
▁trade	-9.06544
▁Kingdom	-9.06601
▁fish	-9.06608
iti	-9.06765
▁City	-9.06804
▁feel	-9.06874
xi	-9.0696
mber	-9.06961
▁Fi	-9.07003
▁either	-9.0728
▁links	-9.07333
▁opened	-9.07414
▁fi	-9.07456
cle	-9.07605
▁systems	-9.0762
pre	-9.07694
▁hug	-9.07714
▁natural	-9.07794
▁built	-9.07814
▁State	-9.07924
▁visit	-9.08132
rn	-9.08187
▁Robert	-9.08191
▁plant	-9.08226
ae	-9.0826
▁south	-9.08355
▁service	-9.08387
▁age	-9.08399
▁met	-9.08524
▁album	-9.0856
▁groups	-9.08683
▁app	-9.08717
▁Mia	-9.09009
ular	-9.0907
▁further	-9.09132
▁poet	-9.09142
▁letter	-9.09188
▁James	-9.09189
▁plan	-9.09203
▁fa	-9.09213
▁Br	-9.0925
▁mass	-9.09378
▁Ber	-9.09561
▁George	-9.09582
▁Mc	-9.0961
▁While	-9.09624
▁practice	-9.09729
▁Wa	-9.09734
▁date	-9.09758
use	-9.09763
▁30	-9.09842
▁movement	-9.09863
▁read	-9.09906
own	-9.10002
ute	-9.10088
▁im	-9.10103
▁range	-9.10138
rr	-9.10215
arch	-9.10222
▁India	-9.10247
▁Pre	-9.10287
60	-9.1046
%	-9.10511
▁(18	-9.10552
▁nice	-9.10645
ney	-9.10693
▁Paul	-9.10733
▁described	-9.10775
▁sea	-9.10839
ability	-9.1094
▁Spanish	-9.10997
▁Mon	-9.11047
▁third	-9.1121
▁computer	-9.11446
▁Russian	-9.11456
▁culture	-9.11659
▁Chinese	-9.11723
▁measure	-9.11809
ral	-9.11861
▁stay	-9.11919
hen	-9.11994
put	-9.12046
▁leader	-9.12167
vers	-9.12201
▁Suddenly	-9.12217
▁town	-9.12242
ek	-9.12317
▁ever	-9.12529
▁think	-9.12542
▁hi	-9.12635
kin	-9.12677
ave	-9.12686
▁Great	-9.12894
▁hugged	-9.12954
▁treat	-9.13046
ography	-9.13068
▁operation	-9.13118
▁Japanese	-9.13155
▁General	-9.13279
▁business	-9.13321
▁Tra	-9.13338
▁Wal	-9.1335
▁half	-9.13561
▁science	-9.13583
▁If	-9.13691
▁2010	-9.1386
▁blue	-9.13869
▁draw	-9.13987
▁21	-9.13997
▁appear	-9.14005
▁king	-9.14075
▁Bur	-9.14333
▁company	-9.14396
▁exc	-9.14441
▁areas	-9.14583
▁garden	-9.14659
▁En	-9.14702
▁lost	-9.14741
▁style	-9.14803
▁black	-9.14813
ging	-9.14831
ble	-9.14887
century	-9.14905
ath	-9.14943
▁organ	-9.14946
▁across	-9.15034
▁call	-9.15045
▁white	-9.15192
No	-9.15201
▁Pri	-9.15206
▁sky	-9.15346
▁leave	-9.15475
▁fall	-9.15485
▁Although	-9.15612
▁television	-9.15616
▁mar	-9.15628
▁sal	-9.15712
▁force	-9.15824
▁y	-9.15913
ash	-9.16011
▁higher	-9.16116
mar	-9.16145
▁Gi	-9.16158
▁languages	-9.16182
▁Catholic	-9.16215
▁especially	-9.16215
ious	-9.16243
▁Art	-9.16261
▁rather	-9.16281
bl	-9.16303
▁energy	-9.16417
▁species	-9.16511
▁lead	-9.16549
gan	-9.16649
▁25	-9.16656
▁received	-9.16718
▁network	-9.16755
like	-9.16773
matic	-9.16791
ju	-9.1698
▁Then	-9.17032
▁works	-9.17089
wi	-9.17142
mal	-9.17149
▁Act	-9.17202
bin	-9.17212
gent	-9.17221
dom	-9.17327
▁explore	-9.17388
▁African	-9.17398
af	-9.17441
ym	-9.17482
all	-9.1756
▁possible	-9.17615
▁Republic	-9.17669
acy	-9.17749
▁House	-9.17786
▁sign	-9.17801
▁Charles	-9.17823
▁#	-9.17834
▁brother	-9.18002
aries	-9.18017
▁young	-9.18055
▁refer	-9.18189
let	-9.18226
▁influence	-9.18535
▁occur	-9.18569
▁voice	-9.1869
▁fast	-9.18712
▁cause	-9.18743
cul	-9.18784
▁br	-9.18787
▁host	-9.18838
▁dia	-9.18843
▁court	-9.18879
▁1990	-9.18983
ina	-9.19083
lla	-9.19149
▁pla	-9.19332
▁Minister	-9.19358
▁External	-9.19589
pper	-9.19725
ook	-9.1973
▁Arab	-9.19869
▁Bob	-9.19916
tant	-9.20008
▁bit	-9.20092
▁generally	-9.20186
▁addition	-9.20296
▁race	-9.20304
▁Press	-9.20391
▁director	-9.20398
tract	-9.2045
▁David	-9.20452
9	-9.20533
gh	-9.20697
▁Army	-9.20743
▁traditional	-9.20819
uck	-9.20836
ved	-9.20867
▁2000	-9.20924
light	-9.20932
▁information	-9.20969
▁mis	-9.21327
nce	-9.21407
ock	-9.21413
▁concept	-9.21586
▁$	-9.217
▁Mor	-9.21754
▁break	-9.21817
13	-9.21822
▁action	-9.21845
▁kept	-9.21857
cur	-9.21994
▁block	-9.22016
▁wait	-9.22034
▁fact	-9.22161
▁fly	-9.22162
▁let	-9.22226
▁Africa	-9.22327
bor	-9.22408
▁paper	-9.22466
▁Sea	-9.22475
▁Canadian	-9.22482
▁origin	-9.22489
▁move	-9.22527
▁might	-9.2253
▁sur	-9.22536
▁count	-9.2255
▁cap	-9.2257
▁Cl	-9.22592
▁store	-9.22681
rm	-9.22748
sign	-9.2276
▁birth	-9.2277
▁follow	-9.22832
▁Ed	-9.2284
▁subject	-9.22865
gar	-9.22935
pped	-9.22945
▁Day	-9.22995
burg	-9.23003
90	-9.23009
▁Western	-9.2306
▁mark	-9.23136
▁2013	-9.23178
▁command	-9.23204
▁bad	-9.23256
▁condition	-9.23273
▁2012	-9.23282
tom	-9.23309
▁least	-9.23396
▁fr	-9.23424
tes	-9.23428
▁final	-9.23502
▁mean	-9.23597
▁:	-9.23728
lk	-9.23741
▁station	-9.23777
▁try	-9.2382
▁others	-9.23865
▁spec	-9.23942
ama	-9.23947
▁listen	-9.23958
▁2007	-9.23965
▁instead	-9.24021
▁tu	-9.24042
▁capital	-9.24264
▁mu	-9.24285
rian	-9.24312
ya	-9.24405
▁Party	-9.24464
verse	-9.2448
▁River	-9.24507
▁claim	-9.24625
▁nu	-9.24717
▁available	-9.24751
▁2008	-9.24842
▁gl	-9.25005
▁our	-9.25088
▁2011	-9.251
bil	-9.25135
▁careful	-9.25144
▁vote	-9.25186
▁regard	-9.25194
▁Ti	-9.25237
▁cut	-9.25274
▁learn	-9.25282
▁able	-9.25567
70	-9.25571
▁qua	-9.25647
▁reached	-9.25693
▁Tri	-9.25694
yl	-9.25724
▁Every	-9.25856
▁church	-9.2593
lay	-9.25931
▁noise	-9.25965
▁1980	-9.26007
▁words	-9.2603
ray	-9.26042
rate	-9.26057
▁2009	-9.2607
ö	-9.26077
▁ju	-9.26096
▁fell	-9.26157
ü	-9.26176
▁education	-9.26201
name	-9.26231
▁president	-9.26314
ency	-9.2634
phe	-9.26345
ress	-9.2636
▁ga	-9.26387
ession	-9.26413
▁certain	-9.26499
▁artist	-9.26629
14	-9.26675
ane	-9.26758
▁radio	-9.26799
ik	-9.27079
▁Peter	-9.27208
▁complex	-9.27298
pir	-9.27342
▁super	-9.27389
▁List	-9.27431
▁site	-9.27433
cal	-9.27664
▁start	-9.27676
▁factor	-9.27771
▁forest	-9.2786
▁separate	-9.27875
▁Many	-9.27946
▁above	-9.28002
▁increase	-9.28076
du	-9.28192
ung	-9.2828
late	-9.28305
▁join	-9.28408
berg	-9.28432
▁going	-9.28523
▁beautiful	-9.28532
▁night	-9.28571
▁report	-9.28576
▁Award	-9.28865
▁account	-9.28914
▁actress	-9.28954
▁Han	-9.28977
▁Bra	-9.29075
▁Earth	-9.29119
▁2014	-9.29143
off	-9.29166
▁introduced	-9.29228
ably	-9.29296
lav	-9.29314
▁itself	-9.29317
▁piece	-9.29342
▁loud	-9.29437
▁father	-9.29484
bra	-9.29534
br	-9.29564
vent	-9.29651
▁relative	-9.29705
ulation	-9.29722
▁Ki	-9.29745
▁2006	-9.29928
17	-9.30476
▁par	-9.30506
You	-9.30567
▁employ	-9.30581
▁Fo	-9.30609
▁Sta	-9.30694
▁Mac	-9.30736
▁Latin	-9.30887
▁Council	-9.30892
▁1970	-9.30938
▁writing	-9.30944
tail	-9.31051
▁experience	-9.31073
▁bus	-9.31075
It	-9.31097
▁clean	-9.31104
▁travel	-9.31204
pen	-9.31275
▁consider	-9.3129
q	-9.31304
uc	-9.31385
▁size	-9.31406
▁means	-9.31435
▁mother	-9.31443
rich	-9.31492
▁("	-9.31571
lon	-9.3162
▁smile	-9.31726
▁Henry	-9.3176
▁Dis	-9.31777
▁current	-9.3189
▁Australian	-9.31892
▁24	-9.31968
mu	-9.3207
place	-9.32074
▁brought	-9.32093
▁2005	-9.32113
Yes	-9.32132
▁Fe	-9.3219
▁nation	-9.32195
hal	-9.322
▁scholar	-9.3233
í	-9.32356
▁Nor	-9.32412
▁quickly	-9.32435
lor	-9.32521
▁document	-9.32541
000	-9.32684
dent	-9.32819
ria	-9.32932
▁thanked	-9.3295
▁picture	-9.32964
arian	-9.33004
▁lower	-9.33092
▁river	-9.33155
rup	-9.33207
rk	-9.33257
▁reason	-9.33498
▁base	-9.33562
0%	-9.33626
▁religious	-9.33869
fin	-9.3389
onic	-9.33968
▁past	-9.33989
▁taken	-9.34068
▁died	-9.3408
▁week	-9.34111
▁Bro	-9.34192
vision	-9.34223
ax	-9.34257
▁2015	-9.3431
▁almost	-9.34417
fe	-9.34508
▁pen	-9.34513
rated	-9.34548
ets	-9.34567
▁Force	-9.34584
▁doll	-9.34587
ica	-9.34587
bre	-9.34675
▁critic	-9.34717
▁table	-9.34776
▁That	-9.34899
▁Ko	-9.34932
▁recent	-9.35148
▁ear	-9.35172
▁win	-9.35178
zi	-9.35181
▁books	-9.35195
▁office	-9.35204
get	-9.35229
ji	-9.35256
▁formed	-9.35353
▁Pol	-9.3538
▁ver	-9.35407
▁code	-9.35414
▁personal	-9.35629
ult	-9.35659
bert	-9.3572
▁pur	-9.35726
▁tax	-9.35828
▁+	-9.35998
▁Japan	-9.36036
▁hurt	-9.3606
▁mid	-9.36189
▁Canada	-9.36196
30	-9.36217
▁showed	-9.36368
▁leg	-9.36507
tric	-9.36515
▁laughed	-9.36553
▁independent	-9.36592
▁metal	-9.3668
▁Wi	-9.36737
▁reach	-9.36746
rac	-9.36754
tim	-9.36902
▁entire	-9.36992
mor	-9.37173
▁Court	-9.3722
▁School	-9.37296
▁living	-9.37384
▁evidence	-9.37462
ory	-9.37483
ec	-9.37531
▁moved	-9.37532
▁Asia	-9.37587
ene	-9.37613
Y	-9.37692
▁Comp	-9.37783
▁produce	-9.37799
▁lots	-9.37819
▁lot	-9.37833
war	-9.37903
▁2016	-9.37977
tern	-9.37988
▁according	-9.3799
▁develop	-9.37992
ich	-9.38
cra	-9.38023
▁central	-9.38046
▁temperature	-9.38102
self	-9.38125
▁sent	-9.38228
py	-9.38328
▁throughout	-9.38347
▁gas	-9.38623
▁Since	-9.38631
▁successful	-9.3869
▁particular	-9.38691
▁Sc	-9.38758
ó	-9.3883
▁organization	-9.38852
▁door	-9.38874
▁worked	-9.38939
ologist	-9.38963
▁serve	-9.39026
pha	-9.39027
▁Ph	-9.39153
▁Tu	-9.39168
▁dance	-9.39234
▁syn	-9.39271
▁foreign	-9.39309
▁Grand	-9.39309
▁media	-9.39318
▁lu	-9.39323
▁High	-9.3934
zz	-9.39373
win	-9.39388
▁Reg	-9.39427
▁else	-9.3946
▁meaning	-9.39508
▁thus	-9.39531
▁ve	-9.39574
▁Park	-9.39788
▁done	-9.39877
teen	-9.39894
▁Je	-9.3996
phy	-9.40063
▁tradition	-9.40081
▁terms	-9.40107
▁1960	-9.40131
▁talk	-9.40134
over	-9.40148
▁machine	-9.4016
board	-9.40218
▁elements	-9.40242
▁First	-9.40275
▁surface	-9.40505
▁feeling	-9.40613
▁engine	-9.40658
▁video	-9.40741
fu	-9.4075
ify	-9.40753
We	-9.41032
▁Ste	-9.41035
▁figure	-9.41046
▁Most	-9.41074
▁sha	-9.41191
duc	-9.41197
tz	-9.41202
▁male	-9.41325
▁wide	-9.41434
▁â	-9.4144
▁cross	-9.41542
▁stage	-9.41553
ink	-9.41588
▁surprise	-9.41681
▁sat	-9.41728
atory	-9.41825
▁health	-9.41843
▁Central	-9.41854
▁seven	-9.41875
▁understand	-9.419
▁flew	-9.41913
▁People	-9.41999
ole	-9.42036
▁file	-9.42096
▁Australia	-9.42308
▁tell	-9.4231
ino	-9.42342
▁sw	-9.42362
▁2018	-9.424
▁image	-9.42403
▁founded	-9.42503
▁coast	-9.42511
▁Eu	-9.42541
▁brave	-9.42628
▁Ver	-9.42663
▁Mal	-9.42704
▁producer	-9.42856
year	-9.42913
ford	-9.43061
▁maintain	-9.43137
▁access	-9.43186
▁engineer	-9.43241
-1	-9.43326
▁stop	-9.43471
▁boat	-9.43523
▁touch	-9.43607
▁Book	-9.43682
▁approach	-9.43725
jo	-9.43801
▁question	-9.43902
▁civil	-9.43944
▁Gal	-9.44082
▁performance	-9.44113
▁Mary	-9.44134
▁gain	-9.44155
▁2017	-9.44228
œ	-9.44317
▁22	-9.44336
▁helped	-9.44363
▁specific	-9.44476
pri	-9.44541
▁cost	-9.44618
att	-9.44715
▁ice	-9.44768
▁Royal	-9.44769
▁army	-9.4492
▁port	-9.44943
▁increased	-9.44973
▁rights	-9.45081
▁needed	-9.45144
▁conduct	-9.45224
▁eventually	-9.45242
Thank	-9.45318
▁Richard	-9.45452
▁Battle	-9.45459
▁League	-9.45482
ically	-9.4558
▁2020	-9.45675
cha	-9.4574
▁improve	-9.45788
▁2004	-9.45804
▁towards	-9.45817
▁percent	-9.4585
ese	-9.45864
▁op	-9.45872
▁behind	-9.45873
▁whose	-9.45902
zo	-9.45952
▁Super	-9.46027
▁center	-9.46068
▁23	-9.46074
lock	-9.46198
▁average	-9.46268
▁Thomas	-9.46356
▁hands	-9.4636
cip	-9.46402
▁Dutch	-9.46406
▁branch	-9.46418
▁Britain	-9.46447
▁focus	-9.46448
▁legal	-9.46485
▁composer	-9.4654
▁reported	-9.46589
iz	-9.46653
▁application	-9.4669
▁multi	-9.46693
tar	-9.46695
▁Lucy	-9.46714
▁pay	-9.46825
▁create	-9.46834
vin	-9.46843
▁longer	-9.46912
▁allowed	-9.46977
▁matter	-9.47039
ographic	-9.47101
▁Fu	-9.47109
▁required	-9.47132
well	-9.47156
▁2019	-9.47171
▁clear	-9.47213
▁associated	-9.4727
gel	-9.47292
▁road	-9.47298
▁films	-9.47353
▁located	-9.47362
▁Ve	-9.47397
▁gene	-9.47557
▁train	-9.47613
▁walked	-9.47648
ett	-9.47903
▁2001	-9.47905
▁release	-9.47909
▁rank	-9.4793
▁environment	-9.47975
▁battle	-9.48082
bel	-9.4811
hr	-9.48151
▁Pu	-9.4816
▁Prince	-9.48207
▁distinct	-9.48259
▁represent	-9.48298
▁enough	-9.48343
ttle	-9.48356
▁"""	-9.4839
▁front	-9.48446
▁connect	-9.485
▁angry	-9.48511
▁print	-9.48523
rid	-9.48584
▁sa	-9.48617
▁Star	-9.48632
▁child	-9.48644
▁card	-9.48647
graph	-9.4865
▁cook	-9.48912
▁seem	-9.48939
▁App	-9.48941
▁speak	-9.48944
hy	-9.49003
99	-9.49194
▁appeared	-9.49276
east	-9.49364
cop	-9.49397
▁My	-9.49537
▁hit	-9.4956
▁difficult	-9.49621
▁running	-9.49621
▁protect	-9.49642
▁micro	-9.49734
▁sport	-9.49808
▁Char	-9.4992
▁once	-9.49956
▁care	-9.50107
▁referred	-9.50161
▁announced	-9.50199
▁Philip	-9.50326
▁remained	-9.5033
meter	-9.50441
▁climb	-9.50471
▁amount	-9.50537
▁collect	-9.50571
▁watch	-9.50606
▁Jewish	-9.50628
64	-9.50629
40	-9.50691
▁wood	-9.50693
▁working	-9.507
▁College	-9.50723
▁increasing	-9.50754
▁Science	-9.50755
▁speed	-9.50833
▁related	-9.50841
▁concern	-9.50849
duct	-9.50926
▁Italy	-9.50949
▁gu	-9.50962
don	-9.50999
itive	-9.51176
▁Time	-9.51286
▁Rome	-9.51314
▁particularly	-9.51452
▁adventure	-9.51549
▁born	-9.51633
fo	-9.51678
▁Che	-9.51755
▁ancient	-9.51774
field	-9.519
head	-9.51914
▁truck	-9.51925
fl	-9.51966
based	-9.51992
▁electric	-9.52107
lig	-9.52151
▁auto	-9.52158
▁experiment	-9.52189
▁today	-9.52228
▁aircraft	-9.5227
▁effort	-9.52318
▁provided	-9.52544
▁26	-9.52572
▁months	-9.52659
▁Em	-9.52674
not	-9.52677
ware	-9.52694
▁returned	-9.52716
▁nature	-9.52731
▁mission	-9.52754
▁para	-9.52767
05	-9.5279
▁depend	-9.53042
▁leading	-9.53121
▁symbol	-9.53165
Let	-9.53243
▁Min	-9.53371
lit	-9.53395
▁era	-9.5344
iff	-9.5369
▁equal	-9.53726
je	-9.53807
▁wall	-9.53838
▁events	-9.5391
▁peace	-9.53928
▁believe	-9.53993
▁pretty	-9.54005
▁Louis	-9.54038
▁footballer	-9.54045
▁relationship	-9.54102
▁cities	-9.54136
▁Cal	-9.54159
▁cases	-9.54192
▁warm	-9.5421
▁UK	-9.54228
▁hot	-9.54247
▁industry	-9.54266
▁community	-9.54299
▁stopped	-9.54309
▁reference	-9.54317
▁transport	-9.54325
▁Frank	-9.54334
▁select	-9.54356
▁majority	-9.54572
▁charge	-9.54628
▁pop	-9.54664
▁Saint	-9.54684
▁historical	-9.547
mination	-9.547
ridge	-9.54761
vest	-9.54788
▁regular	-9.54793
▁Chi	-9.54882
18	-9.54891
▁Hi	-9.54899
▁themselves	-9.54957
▁disc	-9.55007
▁event	-9.55016
▁Er	-9.55045
▁shape	-9.55081
▁commercial	-9.55155
ola	-9.55243
▁Mont	-9.55278
▁campaign	-9.55321
32	-9.55322
▁response	-9.55354
▁suggest	-9.55367
▁beginning	-9.55374
08	-9.55463
▁soldier	-9.55469
▁private	-9.55553
American	-9.55646
▁added	-9.55772
▁Shi	-9.55817
▁picked	-9.55835
35	-9.55921
▁bright	-9.55962
`	-9.55986
▁degree	-9.55986
▁reading	-9.56128
▁27	-9.56242
▁features	-9.56287
▁Tru	-9.56313
▁designed	-9.56325
▁believed	-9.56349
are	-9.56377
▁continue	-9.56476
▁walk	-9.56501
▁Prime	-9.56505
▁eyes	-9.56672
wise	-9.56694
02	-9.56741
▁wind	-9.56766
▁eight	-9.56792
▁killed	-9.56844
▁2003	-9.56847
▁flu	-9.56892
▁Tur	-9.56919
▁served	-9.56943
▁policy	-9.56959
titu	-9.56977
cover	-9.57038
▁Ya	-9.57087
);	-9.5719
▁fight	-9.57195
19	-9.5724
▁Hall	-9.57264
▁rain	-9.5729
ini	-9.57323
work	-9.57341
▁Jane	-9.57342
▁looking	-9.57362
}	-9.57431
▁Further	-9.57465
▁historian	-9.57466
▁Old	-9.57482
▁achieve	-9.57499
▁religion	-9.57499
hood	-9.57511
▁course	-9.57515
▁match	-9.57518
▁Joe	-9.57583
▁tea	-9.57826
▁length	-9.5783
▁cry	-9.57836
▁football	-9.58003
▁green	-9.58045
▁28	-9.58126
rist	-9.5826
▁direct	-9.58372
back	-9.58402
▁California	-9.58417
▁Black	-9.58452
▁border	-9.58453
▁write	-9.58536
What	-9.58537
95	-9.5854
solve	-9.58547
right	-9.58556
ode	-9.5857
▁money	-9.5859
▁slide	-9.58729
▁path	-9.58784
▁daughter	-9.58794
ough	-9.58891
▁dress	-9.58919
mark	-9.58926
▁walking	-9.58943
▁prevent	-9.58954
cho	-9.5901
▁instrument	-9.59035
▁oil	-9.59095
col	-9.59103
mann	-9.59115
▁academic	-9.59138
▁normal	-9.59151
temp	-9.59162
▁Red	-9.59172
▁deep	-9.59217
▁Spain	-9.59243
75	-9.59258
▁Dad	-9.59319
▁kill	-9.59349
avi	-9.59355
▁physical	-9.59483
▁stated	-9.59535
25	-9.59619
▁defined	-9.59765
▁services	-9.59771
ati	-9.59811
▁club	-9.59873
▁shiny	-9.5997
▁agreed	-9.60124
▁heavy	-9.60178
▁stand	-9.6018
▁display	-9.60243
▁economy	-9.60246
Q	-9.60346
▁search	-9.60351
▁dr	-9.60361
kh	-9.60557
▁Congress	-9.6056
▁coin	-9.60565
▁caused	-9.60585
▁seat	-9.60588
▁Va	-9.60618
unk	-9.6062
07	-9.60641
▁si	-9.60712
lip	-9.60717
reg	-9.60773
▁Win	-9.60806
▁acid	-9.60819
▁owner	-9.60877
▁2002	-9.61041
▁mod	-9.61051
dict	-9.61074
09	-9.61171
▁cy	-9.61178
load	-9.61197
▁officer	-9.61259
▁earlier	-9.61261
▁here	-9.61263
▁Q	-9.61326
▁raise	-9.61433
5%	-9.61442
▁element	-9.61461
▁III	-9.6152
04	-9.61602
▁female	-9.61649
▁1999	-9.61662
▁secret	-9.6179
bar	-9.61803
pan	-9.61834
65	-9.61866
▁conf	-9.61888
▁wear	-9.61897
+	-9.61902
top	-9.61937
▁address	-9.62009
tru	-9.62049
spec	-9.6206
▁typically	-9.6212
▁Mark	-9.6225
86	-9.62276
▁lack	-9.62287
ories	-9.62333
▁dark	-9.62395
▁perform	-9.62408
▁Irish	-9.6243
▁user	-9.62447
craft	-9.6245
▁100	-9.62598
▁hear	-9.62667
▁cannot	-9.62702
▁future	-9.6282
▁offer	-9.62825
06	-9.62857
▁Muslim	-9.62927
▁billion	-9.62963
type	-9.6299
lam	-9.63126
▁widely	-9.63131
▁drive	-9.63194
▁collection	-9.63216
96	-9.63251
pping	-9.63326
ā	-9.63393
lia	-9.63396
ific	-9.63405
▁difference	-9.6341
▁loss	-9.63422
now	-9.63491
▁bring	-9.63502
▁Age	-9.63506
▁pressure	-9.63594
hol	-9.63716
gno	-9.63717
▁begin	-9.63821
▁Tre	-9.63905
01	-9.63937
▁location	-9.64008
ura	-9.64109
▁operate	-9.64116
▁gold	-9.64157
▁Green	-9.64169
▁elected	-9.64259
▁implement	-9.64348
izing	-9.64441
▁effective	-9.6446
▁Russia	-9.64494
▁grow	-9.64509
▁Game	-9.64523
▁device	-9.64552
03	-9.64585
▁everyone	-9.64623
98	-9.64632
az	-9.6464
where	-9.64647
▁limit	-9.64657
▁stick	-9.6469
▁limited	-9.6479
agon	-9.6487
▁article	-9.64951
▁deal	-9.64963
▁hope	-9.64969
▁Inter	-9.64987
▁express	-9.65064
▁Polish	-9.65103
▁companies	-9.65316
▁edition	-9.65407
▁Society	-9.65425
▁pick	-9.65632
▁string	-9.65708
▁Paris	-9.65949
▁Sun	-9.65959
▁potential	-9.66014
▁require	-9.66083
▁larger	-9.66102
▁growth	-9.66109
▁closer	-9.66242
▁bank	-9.66285
97	-9.66296
poli	-9.66319
▁Fre	-9.66337
▁recorded	-9.66483
▁active	-9.6663
▁taking	-9.66717
▁discuss	-9.66798
ō	-9.6694
▁...	-9.67005
▁Free	-9.67014
▁already	-9.67014
▁commonly	-9.67015
▁Gar	-9.67026
ception	-9.67054
▁camp	-9.67147
app	-9.67165
▁below	-9.67263
▁Wo	-9.67267
▁rec	-9.67269
ken	-9.67278
ault	-9.67417
▁complete	-9.67463
▁fiction	-9.67474
▁highest	-9.67526
▁technique	-9.67612
▁purpose	-9.67621
pression	-9.67654
▁involved	-9.6767
▁moment	-9.67797
▁content	-9.67808
45	-9.67837
▁whole	-9.6784
▁Cre	-9.67852
▁Michael	-9.67912
▁Emperor	-9.68138
▁students	-9.68183
state	-9.68223
▁Mommy	-9.68313
finite	-9.68412
ani	-9.68423
▁career	-9.6843
▁turned	-9.68461
▁disease	-9.68516
▁pan	-9.68608
▁conflict	-9.68629
▁multiple	-9.68646
▁primary	-9.68655
grad	-9.68676
88	-9.68736
▁arrived	-9.68743
▁construction	-9.68781
▁proposed	-9.68781
▁Another	-9.68857
▁Pan	-9.68864
▁cur	-9.68875
▁distance	-9.68896
▁Sue	-9.68908
▁29	-9.69028
▁affect	-9.69094
▁nuclear	-9.69262
▁carry	-9.69308
▁whether	-9.69427
▁replaced	-9.69429
▁gun	-9.69439
ept	-9.69516
▁1998	-9.69549
rough	-9.69579
▁stories	-9.6962
mission	-9.69632
▁parents	-9.69699
▁Dar	-9.69701
▁Christ	-9.69716
>	-9.69733
mun	-9.69734
ivity	-9.69867
urg	-9.69891
▁respect	-9.69929
▁pull	-9.69953
▁sold	-9.69954
▁Mil	-9.69978
▁Cap	-9.69979
That	-9.70079
▁Bru	-9.70107
▁bound	-9.70118
▁software	-9.70277
udi	-9.70332
▁cool	-9.7038
▁Film	-9.70428
uk	-9.70432
▁via	-9.70481
▁nodded	-9.70502
▁advance	-9.70579
▁push	-9.70621
▁decade	-9.70658
▁episode	-9.70695
ku	-9.70696
▁reform	-9.70719
▁Gold	-9.70749
▁target	-9.70888
▁System	-9.70888
▁Later	-9.70951
93	-9.70969
▁Music	-9.7101
▁Fin	-9.71035
92	-9.71055
85	-9.71086
▁fair	-9.71121
▁50	-9.71264
▁minor	-9.71289
▁Let	-9.71311
oid	-9.71342
▁describe	-9.71359
▁mention	-9.71389
▁spread	-9.71432
▁wife	-9.71549
sky	-9.71584
▁noticed	-9.71593
▁Institute	-9.71626
▁suit	-9.71764
▁technology	-9.71822
▁directly	-9.71823
▁northern	-9.71864
▁Arch	-9.71958
*	-9.7196
▁Washington	-9.72017
▁1996	-9.72104
▁coming	-9.72208
▁principle	-9.72213
▁receive	-9.72239
▁slave	-9.72261
▁true	-9.72267
▁soft	-9.72329
▁decision	-9.7237
▁board	-9.72442
▁pack	-9.72506
▁hole	-9.72521
▁smaller	-9.72528
▁sail	-9.72544
▁mountain	-9.72567
▁jump	-9.72692
▁bomb	-9.727
▁mode	-9.72709
▁Middle	-9.72922
chan	-9.72927
▁demand	-9.72973
▁east	-9.73042
▁Trans	-9.73081
press	-9.7309
▁attend	-9.73133
48	-9.73139
▁weapon	-9.7316
22	-9.73195
▁simple	-9.73358
▁moral	-9.73503
qua	-9.73512
▁cold	-9.73527
morph	-9.73579
▁vol	-9.73636
▁finally	-9.73747
ense	-9.73806
pose	-9.73813
▁flowers	-9.7392
Look	-9.74076
▁Mag	-9.74117
▁Ter	-9.74211
▁Early	-9.74213
▁Second	-9.74236
▁track	-9.74275
▁Not	-9.74277
gra	-9.74381
▁famous	-9.74436
▁build	-9.74468
cular	-9.74548
▁Count	-9.74566
▁annual	-9.74614
lement	-9.74637
87	-9.74679
ature	-9.74713
▁southern	-9.7476
▁thing	-9.74787
▁sum	-9.74795
▁job	-9.74801
▁promise	-9.74821
▁mostly	-9.74855
▁discovered	-9.74867
bro	-9.74998
zy	-9.7503
▁troops	-9.75042
▁arch	-9.75092
▁additional	-9.7512
▁fo	-9.75139
▁minister	-9.75145
▁signal	-9.75205
▁1950	-9.75251
▁magic	-9.75257
stein	-9.75375
▁west	-9.75425
▁Im	-9.75495
89	-9.7552
▁why	-9.75583
▁division	-9.75652
▁round	-9.75664
▁cultural	-9.75768
▁Port	-9.75782
▁happened	-9.75821
▁Museum	-9.7589
▁1994	-9.75893
▁society	-9.75931
94	-9.76009
▁replied	-9.76012
▁prince	-9.76053
▁reaction	-9.76097
▁section	-9.76234
▁rabbit	-9.76339
▁sto	-9.76345
▁extra	-9.76377
68	-9.76426
▁transfer	-9.76451
▁status	-9.76506
▁Fri	-9.76586
▁expand	-9.76667
▁||	-9.7667
▁sure	-9.76704
▁2021	-9.76733
()	-9.76748
▁chemical	-9.76749
▁1991	-9.76872
’	-9.76954
▁Revolution	-9.76975
ville	-9.77111
Can	-9.77176
▁rise	-9.772
▁reflect	-9.77243
▁Ireland	-9.77285
▁Martin	-9.77321
▁indicate	-9.77324
▁originally	-9.77469
▁Eastern	-9.77494
▁floor	-9.77575
▁closed	-9.77614
eau	-9.77715
▁poly	-9.77739
▁centre	-9.7775
In	-9.77763
▁laugh	-9.77865
▁1992	-9.77869
songwriter	-9.77905
▁step	-9.77915
▁basis	-9.77998
78	-9.78064
▁Nations	-9.78102
▁Sal	-9.78122
–18	-9.782
▁Navy	-9.78239
▁Nu	-9.78252
gram	-9.78266
▁hat	-9.78316
word	-9.78332
▁cake	-9.78335
▁poor	-9.78359
21	-9.78453
▁Israel	-9.78522
38	-9.78604
ille	-9.78606
▁capture	-9.78613
▁terr	-9.78667
▁swing	-9.78713
▁Ku	-9.78716
▁finished	-9.78822
▁1997	-9.7883
▁Civil	-9.78907
▁catch	-9.7892
bol	-9.78927
▁tend	-9.78963
▁Parliament	-9.79075
▁Hol	-9.79146
▁score	-9.7915
▁parties	-9.79275
49	-9.79492
▁sweet	-9.795
▁likely	-9.79542
▁White	-9.79543
▁flow	-9.79591
▁largely	-9.79708
▁goal	-9.79764
▁Year	-9.79781
▁hair	-9.79808
▁studies	-9.79919
▁agreement	-9.79934
36	-9.79966
▁Bill	-9.80074
▁correspond	-9.80089
▁passed	-9.80122
ulated	-9.80128
▁definition	-9.80174
▁1995	-9.8027
▁vehicle	-9.80301
▁assist	-9.80305
▁snow	-9.80323
47	-9.80333
▁constitution	-9.80386
▁previous	-9.80547
▁31	-9.80611
▁counter	-9.80674
76	-9.80685
▁TV	-9.807
▁placed	-9.8079
▁formal	-9.80875
▁supported	-9.80951
▁Smith	-9.80987
▁adopted	-9.81068
▁changed	-9.81112
▁link	-9.81152
▁Pra	-9.81166
▁accept	-9.81179
▁watched	-9.81186
▁estimated	-9.81255
▁More	-9.813
▁Northern	-9.81332
▁Sarah	-9.81342
▁analysis	-9.81456
▁Two	-9.81508
▁pra	-9.81665
▁institution	-9.81672
▁police	-9.81674
84	-9.81744
▁rare	-9.81796
▁blood	-9.81801
▁independence	-9.81817
▁heart	-9.81822
▁log	-9.81876
▁scientific	-9.81888
▁professional	-9.81974
▁threat	-9.82063
79	-9.82127
▁territory	-9.82191
sembl	-9.82207
▁sister	-9.82241
–20	-9.82314
▁performed	-9.82325
66	-9.82426
room	-9.8245
▁Ly	-9.82528
fect	-9.82565
▁approximately	-9.82626
▁Center	-9.82731
▁Joseph	-9.82887
33	-9.82935
hor	-9.82945
ball	-9.82962
▁mix	-9.83043
▁joined	-9.83079
▁Government	-9.83105
▁treatment	-9.83141
▁claimed	-9.83143
cast	-9.8318
▁risk	-9.83203
illa	-9.83214
▁sense	-9.83215
91	-9.83328
▁epi	-9.83377
▁broadcast	-9.83461
▁citizen	-9.835
▁really	-9.83662
▁Spot	-9.83669
▁1993	-9.83681
55	-9.83719
itch	-9.83726
▁grass	-9.83735
▁contract	-9.83759
▁variety	-9.83764
83	-9.83782
Z	-9.8382
path	-9.83833
▁Company	-9.83941
▁solution	-9.83967
▁component	-9.84037
▁painter	-9.84087
NA	-9.84152
▁speech	-9.84294
▁Dan	-9.84324
-19	-9.84336
▁Pope	-9.84347
▁philosopher	-9.84382
▁sequence	-9.84427
▁/	-9.84473
▁ready	-9.84534
▁route	-9.84621
▁centuries	-9.84693
▁realized	-9.84693
▁Jen	-9.84719
qual	-9.84754
▁spot	-9.84817
▁price	-9.84885
▁defeat	-9.84932
▁discover	-9.84949
▁married	-9.85006
37	-9.85053
tti	-9.8507
▁Brown	-9.85078
▁animal	-9.85081
▁greater	-9.85127
▁comment	-9.85141
▁volume	-9.85185
▁prior	-9.85189
▁signed	-9.85191
77	-9.85377
▁Land	-9.85474
▁yellow	-9.85541
▁scale	-9.85568
ective	-9.85618
uction	-9.85675
▁carried	-9.85679
▁buy	-9.85739
▁Val	-9.85773
fra	-9.85807
▁review	-9.85838
▁alone	-9.8598
▁Life	-9.86182
▁instance	-9.86182
▁suggested	-9.86198
▁roll	-9.86218
▁double	-9.86218
▁Under	-9.86226
▁prop	-9.86233
▁Alexander	-9.86306
▁belong	-9.86307
key	-9.86347
▁custom	-9.86533
▁belief	-9.86579
▁Even	-9.86602
play	-9.86608
OS	-9.86647
▁Vo	-9.86675
▁Scottish	-9.86688
▁hill	-9.86722
▁Vol	-9.86786
▁okay	-9.8685
81	-9.86922
56	-9.86946
▁perfect	-9.86976
▁Brazil	-9.86986
▁deliver	-9.86987
24	-9.87023
▁coach	-9.87063
▁Lord	-9.87165
▁financial	-9.87168
71	-9.87173
▁fan	-9.87201
▁shared	-9.87223
▁Yu	-9.87307
▁orbit	-9.87331
67	-9.87365
▁therefore	-9.87398
44	-9.87437
▁Bay	-9.87476
▁magazine	-9.87488
▁province	-9.87534
▁scene	-9.87535
▁Prize	-9.8757
▁1989	-9.87628
ula	-9.87701
▁Bre	-9.87804
▁direction	-9.87818
▁weak	-9.87853
▁Law	-9.8792
39	-9.87939
▁numerous	-9.87946
▁Academy	-9.88038
▁add	-9.88083
▁pattern	-9.88084
▁Hy	-9.88184
▁Exp	-9.88185
▁whom	-9.8824
▁obtain	-9.88268
▁property	-9.88298
▁thr	-9.88309
▁decline	-9.88408
▁university	-9.88453
▁divided	-9.8856
▁hours	-9.88564
▁distribution	-9.88637
▁musician	-9.88639
position	-9.88663
▁lit	-9.88678
▁reject	-9.88692
▁sleep	-9.88777
▁horse	-9.88781
▁latter	-9.88784
▁nearly	-9.88925
▁request	-9.88964
▁Association	-9.89008
▁Edward	-9.89109
Re	-9.89202
54	-9.89232
▁completed	-9.89253
▁frame	-9.89298
▁carbon	-9.89338
▁damage	-9.8938
▁literature	-9.89427
▁calendar	-9.89473
▁woman	-9.89568
▁convert	-9.89578
cious	-9.89606
▁sit	-9.89624
▁highly	-9.89635
▁Don	-9.89664
rick	-9.89683
▁memory	-9.89707
▁involve	-9.89775
▁journalist	-9.89899
▁western	-9.89929
Don	-9.8993
▁anymore	-9.89942
▁meeting	-9.89969
▁street	-9.90084
▁extreme	-9.90222
rib	-9.90251
▁shot	-9.90251
▁Cu	-9.90262
34	-9.90375
▁marriage	-9.90504
▁tall	-9.90576
82	-9.90587
▁anything	-9.90608
▁Ham	-9.90724
▁Queen	-9.90743
▁curious	-9.90896
▁mini	-9.90918
▁window	-9.91025
▁Class	-9.91046
▁electron	-9.91048
▁avoid	-9.91124
▁appearance	-9.91156
ogen	-9.91184
▁manufacture	-9.91214
72	-9.91234
▁flight	-9.91274
non	-9.91339
▁global	-9.91546
fici	-9.91592
▁mono	-9.91623
▁primarily	-9.91642
▁goodbye	-9.91642
▁Zealand	-9.91689
▁press	-9.91744
▁pair	-9.91768
▁transform	-9.91786
▁Bank	-9.9187
▁Pen	-9.91898
▁von	-9.91947
▁Internet	-9.92089
▁sexual	-9.92133
▁Stra	-9.92211
▁scientist	-9.92215
▁security	-9.92263
▁Fra	-9.92281
▁map	-9.92308
▁Modern	-9.92313
▁enter	-9.92336
▁Poland	-9.92433
▁Part	-9.92467
▁1930	-9.92484
▁paint	-9.9254
most	-9.9262
▁publish	-9.92621
ette	-9.92664
73	-9.92701
▁planet	-9.92717
74	-9.92826
▁Anti	-9.92976
stone	-9.92996
▁thousand	-9.93081
61	-9.93084
▁page	-9.9311
▁driver	-9.93229
69	-9.93233
view	-9.93282
▁mum	-9.93326
▁forced	-9.93336
▁40	-9.93351
worth	-9.93457
▁County	-9.93517
▁protein	-9.93519
▁occasion	-9.93615
▁mainly	-9.9368
▁opera	-9.93704
▁favorite	-9.93735
▁feature	-9.93778
with	-9.93789
▁yet	-9.93815
isation	-9.9382
▁semi	-9.93838
ä	-9.93858
▁fur	-9.93872
▁middle	-9.93957
lau	-9.94017
63	-9.9408
▁glad	-9.94089
▁fuel	-9.94105
▁grand	-9.9423
▁establish	-9.94245
▁activity	-9.94267
▁promote	-9.94271
▁manager	-9.94301
▁Lake	-9.94571
▁contrast	-9.94592
fri	-9.94632
▁resulting	-9.94671
▁except	-9.94683
itz	-9.94726
loc	-9.94766
cker	-9.94915
62	-9.94933
▁Following	-9.94936
▁federal	-9.94936
▁Jews	-9.94943
▁1986	-9.94946
book	-9.94948
▁Para	-9.94981
abb	-9.95058
58	-9.95111
vol	-9.95125
▁AD	-9.95181
▁Ze	-9.95248
▁wrong	-9.95381
dding	-9.95383
▁training	-9.95388
▁fer	-9.95401
▁month	-9.95463
▁knowledge	-9.95578
▁village	-9.95578
▁musical	-9.9566
▁appointed	-9.95722
▁Gre	-9.95726
▁kitchen	-9.95727
▁compared	-9.95734
▁shown	-9.95767
▁particle	-9.95785
scription	-9.95823
▁drug	-9.95854
59	-9.95922
▁prime	-9.95926
▁sand	-9.95965
cut	-9.96045
▁root	-9.96055
▁mess	-9.96068
▁Group	-9.96175
▁Jean	-9.96218
ground	-9.96255
▁Men	-9.96304
▁succeed	-9.96374
point	-9.96408
▁convention	-9.96424
▁UN	-9.96442
hap	-9.96468
He	-9.96519
▁Service	-9.96524
▁accepted	-9.96547
▁Oxford	-9.96574
▁Sir	-9.96606
▁district	-9.96675
▁enjoyed	-9.96796
▁*	-9.96857
▁mine	-9.96897
▁reveal	-9.9693
▁stone	-9.96958
▁properties	-9.97026
▁mind	-9.97086
▁broke	-9.97154
▁psycho	-9.97182
▁starting	-9.97497
▁Lila	-9.97511
46	-9.97565
▁bag	-9.97623
▁situation	-9.97631
▁drink	-9.97647
▁Now	-9.97685
▁summer	-9.97725
▁constant	-9.9779
▁spin	-9.97804
▁Olympic	-9.97834
▁creation	-9.97843
▁drama	-9.97858
41	-9.97921
▁strength	-9.97935
▁ski	-9.98042
▁nine	-9.98086
▁Mexico	-9.98138
▁slow	-9.98142
▁Over	-9.98218
è	-9.98291
▁Research	-9.98342
▁Everyone	-9.98342
▁unique	-9.98391
▁fit	-9.98392
▁flower	-9.984
▁Rock	-9.98425
list	-9.9846
▁positive	-9.98497
EC	-9.98501
▁Duke	-9.98563
▁basic	-9.98748
▁Despite	-9.9875
lum	-9.98778
▁someone	-9.9879
▁script	-9.98827
wood	-9.98854
▁filled	-9.98856
▁painting	-9.9893
▁initial	-9.99026
▁Bell	-9.99071
Maybe	-9.99253
▁1984	-9.99263
▁lawyer	-9.99274
▁Pakistan	-9.99366
▁medical	-9.99375
▁1988	-9.99476
42	-9.99494
▁Nobel	-9.99556
▁settlement	-9.99573
57	-9.99617
▁classical	-9.99628
▁philosophy	-9.99676
▁screen	-9.99729
▁Work	-9.99756
<	-9.99831
23	-9.99948
▁impact	-9.99959
▁format	-9.99977
▁meta	-9.99998
▁Mad	-10.0002
°	-10.0004
▁Because	-10.0004
▁sector	-10.0006
▁1979	-10.0009
▁broken	-10.0012
rew	-10.0014
▁Swedish	-10.0019
▁die	-10.0028
▁Cam	-10.0028
▁argued	-10.003
▁1987	-10.003
▁lake	-10.0045
▁becoming	-10.0046
▁Hor	-10.0048
▁meet	-10.0051
▁grabbed	-10.0056
43	-10.0056
▁Lee	-10.0058
$	-10.0061
▁competition	-10.0061
▁chief	-10.0066
▁detect	-10.0071
▁Public	-10.0077
▁compound	-10.0077
▁equation	-10.0077
▁Mill	-10.0083
▁1982	-10.0092
▁defend	-10.0098
▁Up	-10.0098
file	-10.0099
AR	-10.0105
▁doctor	-10.0111
range	-10.0112
▁declared	-10.0119
▁bishop	-10.0124
▁industrial	-10.0129
phon	-10.013
▁Ye	-10.013
52	-10.013
▁ring	-10.0136
rating	-10.0136
▁castle	-10.0142
▁influenced	-10.0143
▁Ob	-10.0143
▁movie	-10.0145
class	-10.0145
▁phase	-10.0146
▁climate	-10.015
▁dream	-10.015
▁Social	-10.0155
itude	-10.0172
ancy	-10.0172
▁depict	-10.0178
▁emerge	-10.0184
▁Both	-10.0185
▁farm	-10.0186
▁plane	-10.0189
|	-10.0192
▁applied	-10.0192
▁1945	-10.0193
▁Egypt	-10.0195
▁emperor	-10.0197
▁1985	-10.0198
continent	-10.0199
▁intended	-10.0203
▁answer	-10.0203
which	-10.021
house	-10.0213
▁previously	-10.022
▁Best	-10.0221
53	-10.0224
terior	-10.0227
▁thank	-10.0228
▁lady	-10.0229
▁What	-10.0238
▁Will	-10.0239
▁possess	-10.0244
▁Commission	-10.0252
▁pot	-10.026
51	-10.0261
▁ethnic	-10.0261
▁statement	-10.0262
long	-10.0265
▁Southern	-10.0267
▁translation	-10.0271
▁aspect	-10.0273
▁powerful	-10.0278
▁poem	-10.0281
▁communication	-10.0282
▁baseball	-10.0283
▁flag	-10.0286
▁authority	-10.0287
▁progress	-10.0293
▁jumped	-10.0298
▁launched	-10.0303
▁1983	-10.0304
▁1940	-10.0306
▁exchange	-10.0309
▁offered	-10.031
▁context	-10.0313
▁message	-10.0315
▁drum	-10.0317
▁mechanic	-10.032
▁bur	-10.0335
▁Department	-10.0341
▁tail	-10.0348
▁judge	-10.0368
▁cast	-10.037
▁featured	-10.0373
▁failed	-10.0374
▁neighbor	-10.0384
▁lay	-10.0384
▁ride	-10.0394
▁Vietnam	-10.04
▁weight	-10.0404
▁dead	-10.0406
▁Par	-10.0407
▁tele	-10.0409
▁burn	-10.0409
▁resident	-10.0416
▁Blue	-10.0417
▁1920	-10.0424
▁ability	-10.0428
▁activities	-10.0443
▁bat	-10.0448
▁save	-10.0459
▁Constitution	-10.046
▁van	-10.0464
▁online	-10.0467
▁spent	-10.0471
▁please	-10.0476
▁tight	-10.0476
▁simply	-10.0481
▁responsible	-10.0492
▁reign	-10.0493
▁1981	-10.0498
▁accident	-10.0509
▁Office	-10.0509
▁internal	-10.0514
▁duck	-10.0517
▁remembered	-10.0523
▁foot	-10.0533
▁Just	-10.0538
▁broad	-10.0541
▁behavior	-10.0552
▁operating	-10.0556
▁teacher	-10.0558
▁prison	-10.0558
▁trying	-10.0558
▁derived	-10.0559
▁Scotland	-10.0563
▁critical	-10.0565
▁fear	-10.0567
round	-10.0577
▁Human	-10.058
▁mouth	-10.0585
▁(17	-10.0587
▁frequently	-10.0596
▁Finally	-10.0601
▁pet	-10.0603
▁native	-10.0609
▁Albert	-10.0618
▁Billy	-10.0628
▁pond	-10.0633
▁connection	-10.0636
▁eastern	-10.0644
▁composed	-10.0652
▁giving	-10.0657
▁Hill	-10.0658
▁crew	-10.0663
▁Plan	-10.0667
▁serious	-10.0668
▁seek	-10.0668
phi	-10.068
▁1975	-10.068
▁extensive	-10.0685
▁labor	-10.0685
▁fixed	-10.0689
▁lesson	-10.0691
▁Space	-10.0695
▁unknown	-10.0695
▁reduce	-10.0695
▁harm	-10.0698
▁initially	-10.0713
▁channel	-10.0718
▁Tro	-10.0719
▁1969	-10.0729
▁argument	-10.0729
▁Death	-10.0732
▁wild	-10.0736
▁older	-10.0738
▁1973	-10.074
▁partner	-10.0742
commun	-10.0749
▁Street	-10.0757
▁formula	-10.0758
▁Library	-10.0763
▁alternative	-10.0774
▁square	-10.0779
▁probably	-10.0785
under	-10.0787
▁Of	-10.0788
▁grew	-10.0799
▁league	-10.0802
▁throw	-10.0809
onia	-10.0811
26	-10.0816
▁Ottoman	-10.0816
▁Tommy	-10.0816
▁Pacific	-10.0824
vari	-10.0828
claim	-10.0835
▁directed	-10.0836
solution	-10.0838
▁dig	-10.0845
27	-10.085
▁1972	-10.0852
▁combined	-10.0852
▁sort	-10.0853
▁Portuguese	-10.0858
▁pretend	-10.0864
▁herself	-10.087
▁presence	-10.0882
▁chair	-10.0884
▁{	-10.089
▁send	-10.09
night	-10.09
−	-10.0903
shire	-10.0909
▁Post	-10.091
▁funny	-10.0913
▁colour	-10.0915
▁credit	-10.0915
▁Holy	-10.093
▁1971	-10.0932
▁Thus	-10.0966
▁reduced	-10.0968
rum	-10.0974
▁college	-10.0977
28	-10.0981
▁earliest	-10.0983
▁Ban	-10.0985
▁kingdom	-10.0986
▁represented	-10.099
▁Van	-10.0994
▁mouse	-10.0995
▁patient	-10.1
▁contact	-10.1
new	-10.1002
▁evolution	-10.1003
▁remaining	-10.1003
▁trip	-10.1008
▁shouted	-10.1012
▁morning	-10.1018
▁generation	-10.1018
▁tank	-10.1025
▁generate	-10.1026
▁determined	-10.1026
▁champion	-10.1035
▁publication	-10.1056
▁photo	-10.1057
▁phone	-10.1059
▁1974	-10.1063
▁governor	-10.1068
▁tired	-10.107
▁Arm	-10.1074
▁actually	-10.1075
▁union	-10.1076
▁characteristic	-10.1089
▁dispute	-10.109
▁contribute	-10.1098
circ	-10.1106
▁confirm	-10.111
active	-10.1113
water	-10.1115
▁Far	-10.1134
▁Adam	-10.1145
wan	-10.1154
▁everything	-10.1162
astic	-10.1164
▁variable	-10.1168
▁Radio	-10.1177
anda	-10.1178
▁worry	-10.1179
▁Nazi	-10.1188
▁murder	-10.1191
▁launch	-10.1192
▁Out	-10.1199
trop	-10.1202
▁engage	-10.1203
▁wished	-10.121
▁Op	-10.1211
clo	-10.1215
▁Luc	-10.1219
▁Steve	-10.1224
▁fruit	-10.1238
▁kids	-10.1246
despite	-10.125
▁adult	-10.1252
▁dry	-10.1254
▁circle	-10.1256
▁necessary	-10.1261
▁Sally	-10.1266
▁1976	-10.1267
▁yard	-10.1267
▁formation	-10.1279
▁Berlin	-10.1284
▁fix	-10.1286
▁Islamic	-10.1287
pho	-10.1289
▁Record	-10.1291
▁yummy	-10.1297
▁sell	-10.1298
▁exception	-10.1298
▁task	-10.1299
▁None	-10.1299
▁respectively	-10.1303
▁setting	-10.1313
▁growing	-10.132
▁Treaty	-10.132
▁honor	-10.1333
▁Order	-10.1335
▁prominent	-10.1338
▁Gen	-10.1346
▁lion	-10.1348
▁Notes	-10.1352
▁expansion	-10.1356
▁1968	-10.1356
▁fourth	-10.1356
▁extended	-10.1358
▁Mr	-10.137
▁administration	-10.1385
▁identified	-10.1385
29	-10.139
▁expected	-10.139
▁plate	-10.139
▁existence	-10.1392
▁1978	-10.1398
▁management	-10.1403
▁export	-10.1409
▁hunt	-10.1412
▁pilot	-10.1421
▁crime	-10.1422
▁Cambridge	-10.1439
▁urban	-10.1439
▁ruler	-10.1441
▁gone	-10.1443
▁hum	-10.1447
▁interview	-10.1448
llar	-10.1451
ique	-10.1462
▁algorithm	-10.1463
▁entered	-10.1468
▁newspaper	-10.1469
▁resources	-10.147
▁correct	-10.1471
count	-10.1473
▁Orthodox	-10.1475
▁regional	-10.148
▁hundred	-10.1481
▁cycle	-10.1483
▁Four	-10.1485
▁favor	-10.149
▁benefit	-10.1493
▁Korea	-10.1496
down	-10.1501
▁moving	-10.1502
▁Gene	-10.1505
▁council	-10.1505
▁bio	-10.1509
▁carefully	-10.1515
▁option	-10.1517
▁Committee	-10.1523
awa	-10.1526
▁etc	-10.1526
▁label	-10.154
▁iron	-10.1541
▁wealth	-10.1542
▁getting	-10.1543
▁bond	-10.1546
▁frog	-10.1548
▁leaving	-10.156
▁defeated	-10.1565
▁revolution	-10.1569
rov	-10.1572
▁1967	-10.1577
▁chain	-10.1579
▁diplomat	-10.1584
▁Cup	-10.1586
▁distinguish	-10.159
▁quality	-10.159
▁explain	-10.1594
▁1966	-10.1596
▁cloud	-10.1596
▁logic	-10.1599
cap	-10.1599
▁split	-10.1614
▁happen	-10.1618
▁km	-10.162
▁negative	-10.1626
town	-10.1637
▁guitar	-10.1637
▁Jesus	-10.164
▁supply	-10.1645
▁Iraq	-10.1645
▁electronic	-10.1651
tory	-10.1661
▁trial	-10.1669
param	-10.1671
▁nearby	-10.1671
▁meant	-10.1676
▁motion	-10.1678
▁equivalent	-10.1681
▁nor	-10.169
▁fighting	-10.1694
▁Sub	-10.171
cade	-10.1711
▁gift	-10.1712
▁wish	-10.1727
▁error	-10.1737
▁occurred	-10.1738
▁Netherlands	-10.1749
▁workers	-10.175
▁opposition	-10.1762
▁argue	-10.1769
▁commission	-10.1776
▁faster	-10.1785
▁choice	-10.1786
▁bridge	-10.1788
▁establishment	-10.1796
▁editor	-10.1799
▁strange	-10.1807
▁noble	-10.1807
Wow	-10.1809
▁Benny	-10.1809
▁conclude	-10.1811
▁explained	-10.1813
▁candidate	-10.183
▁check	-10.183
▁cried	-10.1844
▁containing	-10.1852
▁essential	-10.1854
▁bunny	-10.1855
▁dialect	-10.1855
▁recognized	-10.1857
▁BBC	-10.1861
="	-10.1864
▁Israeli	-10.1868
▁families	-10.1873
assi	-10.1886
▁Texas	-10.1886
▁escape	-10.1886
▁Bowl	-10.1887
▁sample	-10.1892
▁smell	-10.1892
▁Supreme	-10.1898
▁exhibit	-10.1898
▁removed	-10.1902
▁Also	-10.1914
▁1977	-10.1917
▁Power	-10.1924
▁debate	-10.193
▁Phil	-10.1934
▁celebrate	-10.1936
▁exact	-10.1939
▁dropped	-10.1942
▁hydro	-10.1947
▁currently	-10.1947
▁shop	-10.1948
mount	-10.1957
▁attention	-10.1961
code	-10.1967
called	-10.1972
▁assume	-10.1975
▁twin	-10.1987
▁whi	-10.1991
▁Each	-10.1992
▁chemist	-10.1993
▁combination	-10.1999
▁ratio	-10.2005
▁retain	-10.2006
▁mixed	-10.2012
▁bug	-10.2013
▁observed	-10.202
▁advantage	-10.2024
▁quarter	-10.2029
▁teaching	-10.2031
▁nothing	-10.2037
▁minutes	-10.2037
▁Chicago	-10.2056
▁vary	-10.2058
▁domestic	-10.2062
▁Jim	-10.2069
▁parliament	-10.2069
▁Governor	-10.2075
▁Maria	-10.2077
▁opposed	-10.2094
▁DNA	-10.2098
▁chart	-10.2099
▁prepare	-10.2104
▁officially	-10.2105
▁uniform	-10.2107
▁brief	-10.2114
▁destroyed	-10.2115
liber	-10.2116
▁equipment	-10.212
▁survive	-10.212
▁student	-10.2132
▁1962	-10.2132
▁Ocean	-10.2146
▁shift	-10.2146
▁spark	-10.2146
eight	-10.2147
▁Guard	-10.2151
gged	-10.2165
ipp	-10.2174
▁expression	-10.2187
▁winter	-10.219
▁1965	-10.2205
▁1964	-10.2206
▁royal	-10.2211
▁layer	-10.2218
▁skill	-10.2219
▁Major	-10.2223
post	-10.2251
▁forgot	-10.2252
▁Language	-10.2262
▁ocean	-10.2262
▁edge	-10.2265
▁instruction	-10.227
flu	-10.2275
vic	-10.2281
▁Die	-10.2283
▁solid	-10.2291
▁govern	-10.2295
▁regime	-10.2299
▁Tour	-10.2301
▁apple	-10.2312
▁output	-10.2315
▁contemporary	-10.232
▁upper	-10.2322
vert	-10.2323
phone	-10.2332
▁Epi	-10.234
▁priest	-10.234
▁baby	-10.2342
▁recommend	-10.2347
▁fat	-10.2349
▁favour	-10.236
▁refused	-10.236
▁bass	-10.2365
▁protest	-10.2367
▁enjoy	-10.237
▁strip	-10.2377
▁Korean	-10.2383
31	-10.239
▁Democratic	-10.2393
▁Stephen	-10.2393
ibility	-10.2413
▁winner	-10.2414
▁1944	-10.2425
“	-10.2426
▁Gri	-10.2426
▁Command	-10.244
▁awarded	-10.244
▁organized	-10.2441
roll	-10.2442
throp	-10.2444
print	-10.2452
▁shoot	-10.2452
▁Several	-10.2452
▁Islam	-10.2464
found	-10.2466
▁income	-10.2467
▁Greece	-10.2472
▁Federal	-10.2472
▁monarch	-10.2479
align	-10.2484
▁variation	-10.2499
aya	-10.2499
▁import	-10.2505
▁invasion	-10.2518
▁hopped	-10.2524
▁politics	-10.2525
2%	-10.2527
▁Wood	-10.2532
▁encourage	-10.2538
▁useful	-10.254
kov	-10.2548
▁activist	-10.2552
▁victory	-10.2552
▁1963	-10.2571
▁molecule	-10.2572
▁faith	-10.2585
▁zone	-10.2586
▁immediately	-10.2594
▁firm	-10.2596
▁purchase	-10.2599
Hello	-10.2604
▁Assembly	-10.2605
▁audience	-10.2612
▁predict	-10.2616
▁vector	-10.2616
▁Virginia	-10.2623
▁Love	-10.263
▁Education	-10.2632
▁Wall	-10.2637
▁butterfly	-10.2639
▁switch	-10.2654
▁proper	-10.2666
standing	-10.2671
▁protection	-10.2673
▁slowly	-10.2673
▁Leon	-10.268
▁dangerous	-10.2681
▁challenge	-10.27
known	-10.2706
▁Syria	-10.271
▁taste	-10.2712
▁ultimate	-10.2714
▁executive	-10.2714
▁Republican	-10.2718
▁Christianity	-10.2719
▁architect	-10.2725
▁Origin	-10.2734
▁completely	-10.2742
▁drop	-10.2745
▁failure	-10.2748
▁Persian	-10.2749
▁gather	-10.2754
▁composition	-10.2757
▁1948	-10.2769
4%	-10.2779
▁Development	-10.2782
▁communities	-10.2782
▁passenger	-10.2795
▁swim	-10.2801
▁Austrian	-10.2827
▁happily	-10.2844
▁programming	-10.2851
▁Military	-10.2857
▁farmer	-10.2862
”	-10.2864
▁Sweden	-10.2871
▁Austria	-10.2881
law	-10.2888
Why	-10.2893
▁oldest	-10.2896
▁install	-10.2922
▁Rob	-10.2926
source	-10.2926
▁severe	-10.2933
▁identity	-10.2933
▁Common	-10.2938
▁subsequent	-10.2944
▁spoken	-10.2949
life	-10.2954
▁website	-10.2954
▁studio	-10.2961
▁attach	-10.2984
▁Airport	-10.2988
▁brain	-10.2997
▁arrest	-10.3003
▁Today	-10.3005
ographer	-10.3005
▁Jones	-10.3005
1%	-10.3009
▁architecture	-10.3013
▁Columbia	-10.3017
5,000	-10.3024
▁capacity	-10.3031
▁continuous	-10.3038
▁register	-10.3045
▁1939	-10.3052
▁pink	-10.3057
▁beyond	-10.3066
▁glass	-10.3074
▁genetic	-10.3077
▁hospital	-10.308
▁Windows	-10.3087
▁Three	-10.3088
▁egg	-10.3096
This	-10.3106
onym	-10.3118
▁Among	-10.3121
▁medicine	-10.313
▁digital	-10.313
▁zero	-10.3137
▁planned	-10.3138
▁rocket	-10.3141
▁descend	-10.3144
▁portion	-10.3146
▁territories	-10.3151
dependent	-10.3164
▁photograph	-10.3173
▁1942	-10.3193
▁nucle	-10.3193
▁permanent	-10.3194
III	-10.3208
▁easily	-10.3215
▁Byzantine	-10.323
▁freedom	-10.3234
▁bath	-10.3236
▁empire	-10.3237
▁creating	-10.3237
3%	-10.3238
▁consume	-10.3245
▁determine	-10.3247
▁Francis	-10.3254
▁staff	-10.3263
▁Economic	-10.3265
▁incorporate	-10.3265
▁sought	-10.3272
▁skin	-10.3277
▁Egyptian	-10.3283
▁grandma	-10.3283
scribe	-10.3293
ł	-10.3294
habi	-10.3297
▁pitch	-10.3299
▁guitarist	-10.3303
▁lift	-10.3303
▁Like	-10.3305
▁desire	-10.3307
▁coordinat	-10.3309
▁Before	-10.3309
▁cream	-10.3316
▁tube	-10.3321
▁universe	-10.3323
▁decrease	-10.333
▁extend	-10.3335
▁fine	-10.3343
▁introduction	-10.3345
▁Foreign	-10.3352
▁missile	-10.3352
▁apparent	-10.3359
present	-10.336
var	-10.3361
▁combat	-10.3375
▁rub	-10.3385
▁sex	-10.3387
▁Secretary	-10.3391
▁mathematician	-10.3395
▁Long	-10.3396
6%	-10.3405
▁Member	-10.3414
▁Victoria	-10.3418
▁clothes	-10.3424
▁comic	-10.343
ç	-10.3439
▁dynasty	-10.3447
▁traffic	-10.3447
▁overall	-10.345
▁mechanism	-10.3454
▁destroy	-10.3459
▁Organization	-10.3461
▁inspired	-10.3461
▁maximum	-10.3469
▁1961	-10.3475
▁basketball	-10.3476
▁Right	-10.3476
▁respond	-10.3491
▁rival	-10.3491
▁Johnson	-10.3503
▁brand	-10.3504
▁subsequently	-10.3508
power	-10.3511
▁Mountain	-10.352
▁Daisy	-10.352
▁Angeles	-10.3527
▁description	-10.3531
heim	-10.3537
▁Low	-10.355
▁master	-10.3553
▁hide	-10.3557
▁joy	-10.3558
▁Afghanistan	-10.3564
▁dinner	-10.3564
▁concentration	-10.3572
▁worldwide	-10.3579
▁Well	-10.3586
▁transition	-10.3586
▁fundamental	-10.3594
▁Atlantic	-10.3594
▁Hindu	-10.3594
▁Arthur	-10.3594
▁observation	-10.3601
▁balance	-10.3601
▁1941	-10.3608
ught	-10.3608
▁resistance	-10.3609
▁differ	-10.3621
▁literary	-10.3624
▁Little	-10.3638
▁railway	-10.3639
▁brown	-10.3642
▁Molly	-10.3647
▁Hungarian	-10.3653
▁external	-10.3653
ggle	-10.3655
▁Rose	-10.3665
▁peak	-10.3665
▁eye	-10.3667
▁Jackson	-10.3671
▁spend	-10.3685
body	-10.3688
▁Protestant	-10.3691
style	-10.3693
▁crystal	-10.3699
▁winning	-10.3705
▁finish	-10.3729
▁adopt	-10.3731
▁interpretation	-10.3736
▁bowl	-10.3747
▁concert	-10.3751
▁Open	-10.3753
OK	-10.3755
▁programme	-10.3757
▁wonderful	-10.3758
▁hydrogen	-10.3761
▁Earl	-10.3762
▁ideal	-10.3766
▁1947	-10.3766
▁bodies	-10.3766
▁importance	-10.377
▁festival	-10.3781
hara	-10.3781
▁1946	-10.3788
▁Senate	-10.3789
▁genre	-10.379
▁define	-10.3803
text	-10.3808
▁colonial	-10.3811
▁proportion	-10.3811
▁taught	-10.3813
▁frequency	-10.3819
▁technical	-10.3819
▁Chief	-10.3837
▁Young	-10.3843
including	-10.3848
▁representation	-10.3857
▁strike	-10.3858
▁Home	-10.3861
organ	-10.3862
▁bike	-10.3868
▁sharp	-10.3873
▁participate	-10.388
▁quantum	-10.388
▁oxygen	-10.3895
▁delicious	-10.3895
mble	-10.3897
▁disorder	-10.3903
7%	-10.3906
▁providing	-10.3918
▁$1	-10.3925
▁defense	-10.3929
▁portray	-10.3929
Saxon	-10.394
▁parallel	-10.3941
▁opinion	-10.3941
▁demonstrate	-10.3957
▁Club	-10.3958
▁Operation	-10.3959
▁zoo	-10.3967
▁greatest	-10.397
▁trust	-10.3982
▁Festival	-10.3987
▁principal	-10.3987
▁variant	-10.3988
▁spring	-10.3993
▁Bible	-10.3994
▁actual	-10.3996
▁Historical	-10.4003
▁folk	-10.4005
8%	-10.4013
▁sentence	-10.4013
▁association	-10.4018
▁airport	-10.4028
▁collaborat	-10.4042
▁Cross	-10.4042
▁1943	-10.4048
▁vocal	-10.4057
▁balloon	-10.4065
▁Journal	-10.4073
▁managed	-10.4074
▁milk	-10.4085
▁kick	-10.4086
▁Division	-10.4086
▁treasure	-10.4088
▁amazing	-10.4096
▁medieval	-10.4104
▁Indonesia	-10.4104
▁surrounding	-10.4104
▁interaction	-10.412
▁remember	-10.4123
▁Flo	-10.4126
▁1959	-10.4126
▁Standard	-10.4127
▁Elizabeth	-10.4135
▁crown	-10.4151
▁paid	-10.4155
▁Project	-10.4159
▁investment	-10.4159
▁liquid	-10.4167
▁bone	-10.4172
fact	-10.4174
▁leadership	-10.4183
▁cup	-10.4193
▁flat	-10.4204
▁wheel	-10.4214
▁Though	-10.4218
▁reserve	-10.4226
▁civilian	-10.4226
▁museum	-10.423
▁motor	-10.4232
▁copy	-10.4232
▁representative	-10.4235
▁GDP	-10.4246
▁1918	-10.4248
▁presidential	-10.4249
▁silver	-10.4254
▁angle	-10.4266
▁assert	-10.4267
▁screenwriter	-10.4269
▁cricket	-10.4285
▁Roger	-10.429
fall	-10.4295
▁mineral	-10.4296
▁Francisco	-10.4298
▁Health	-10.4314
▁physicist	-10.4325
▁possibly	-10.4325
▁1949	-10.4333
▁chance	-10.4336
▁cloth	-10.4343
▁truth	-10.4357
▁storm	-10.4368
▁column	-10.4373
#	-10.4376
▁controlled	-10.4379
▁trouble	-10.4381
▁Security	-10.4381
▁Water	-10.4387
▁Engine	-10.4389
▁monster	-10.4389
▁Scott	-10.4394
▁graphic	-10.4395
related	-10.4402
▁journey	-10.4405
▁Coast	-10.4412
▁Mexican	-10.4421
▁Georgia	-10.4421
\	-10.4421
▁requirement	-10.4443
▁physician	-10.447
▁physics	-10.4478
▁Jimmy	-10.448
▁electro	-10.4482
▁Series	-10.4482
▁finger	-10.4484
▁1956	-10.4485
▁yield	-10.4486
▁couple	-10.4503
▁Frederick	-10.4527
▁contribution	-10.4535
direct	-10.4537
▁Treaties	-10.4543
▁policies	-10.4543
||	-10.4546
▁Domini	-10.4547
▁heavily	-10.4551
▁understood	-10.4559
▁theorem	-10.456
▁operator	-10.4564
▁Johann	-10.4568
▁squirrel	-10.4576
▁Czech	-10.4576
▁Jill	-10.4583
▁1958	-10.4583
▁crisis	-10.4584
▁dragon	-10.4585
▁observe	-10.459
▁stable	-10.4596
▁universal	-10.46
▁license	-10.46
▁estimate	-10.4606
▁radiation	-10.4608
▁crash	-10.4616
▁Emma	-10.4622
face	-10.4624
▁fox	-10.4639
▁welcome	-10.465
▁incident	-10.4666
▁Andrew	-10.467
▁appeal	-10.4683
from	-10.4684
▁authorities	-10.4687
▁wire	-10.4691
▁guard	-10.4692
▁Apollo	-10.4707
ponent	-10.4708
▁Cuba	-10.4713
▁stock	-10.4727
▁Special	-10.4728
▁procedure	-10.4749
▁neuro	-10.4749
▁circuit	-10.4757
▁vowel	-10.4757
▁domain	-10.4758
▁Imperial	-10.4774
▁cave	-10.4777
▁library	-10.4782
▁density	-10.4782
▁preserve	-10.4787
▁march	-10.4794
▁sugar	-10.4796
▁journal	-10.4798
▁exercise	-10.4799
▁hockey	-10.4799
▁giant	-10.48
▁Norwegian	-10.4816
▁valid	-10.4817
▁fleet	-10.4825
▁spiritual	-10.4834
▁visual	-10.485
▁orange	-10.4855
▁1957	-10.4856
▁Bulgaria	-10.4858
▁guide	-10.4863
▁collapse	-10.4875
▁republic	-10.4875
▁Ancient	-10.4875
▁criminal	-10.4883
▁Turkish	-10.4892
▁causing	-10.4901
▁studied	-10.4909
▁vessel	-10.4909
▁quite	-10.4909
▁intelligence	-10.4917
▁slightly	-10.4917
▁specifically	-10.4917
▁liberal	-10.4917
speaking	-10.4932
▁struggle	-10.4934
▁Danish	-10.4949
▁hungry	-10.4959
▁Good	-10.4982
▁quiet	-10.4986
▁Valley	-10.4989
▁height	-10.499
▁bought	-10.5004
value	-10.501
▁secure	-10.5014
▁Justice	-10.5014
▁consul	-10.5019
▁opponent	-10.502
▁feet	-10.5033
▁mathematical	-10.5036
▁Swiss	-10.5036
▁stress	-10.5041
▁Championship	-10.5045
▁satellite	-10.5045
▁practical	-10.5045
1,000	-10.5051
group	-10.5056
▁suffered	-10.5062
▁District	-10.5079
▁corner	-10.5085
▁Jerusalem	-10.5096
▁substantial	-10.5096
▁expect	-10.5108
9%	-10.5112
▁1933	-10.5114
▁magnetic	-10.5118
▁Convention	-10.5122
▁execute	-10.5122
▁dedicated	-10.5148
▁Spec	-10.5151
▁medium	-10.5166
▁ensure	-10.5168
▁compete	-10.517
phil	-10.52
▁Finland	-10.5208
▁Daniel	-10.5236
▁plot	-10.5238
▁criticism	-10.5246
▁Communist	-10.5253
▁caught	-10.5255
▁fresh	-10.5262
▁bull	-10.5283
▁influential	-10.5288
▁department	-10.5288
▁platform	-10.5306
▁stretch	-10.5306
▁clock	-10.531
▁Program	-10.531
£	-10.5314
▁smart	-10.5324
▁fashion	-10.5332
&	-10.5343
hydr	-10.5346
approximate	-10.535
▁Lewis	-10.5351
▁expensive	-10.5359
▁creature	-10.5359
▁Football	-10.5367
▁mathematics	-10.5367
▁Prussia	-10.5385
▁substance	-10.5385
▁1952	-10.5393
▁Turkey	-10.5396
▁Hebrew	-10.5403
▁temple	-10.5404
▁Through	-10.5424
▁everywhere	-10.5425
▁1938	-10.543
▁analog	-10.5432
▁Women	-10.5434
▁patent	-10.5439
▁cancer	-10.5442
▁imperial	-10.5457
▁threw	-10.5457
▁transmit	-10.5458
▁widespread	-10.5474
600	-10.5478
▁singing	-10.5485
{	-10.5487
▁proposal	-10.5492
Where	-10.5493
▁phrase	-10.5501
▁spoke	-10.5508
▁violence	-10.551
▁Boston	-10.5514
dependence	-10.5519
▁silly	-10.5522
▁1953	-10.5527
▁amazed	-10.5528
▁bread	-10.5538
▁husband	-10.5546
▁identify	-10.5564
▁consequence	-10.5573
▁naval	-10.5583
▁Simon	-10.5587
▁1917	-10.5597
script	-10.5604
▁Between	-10.561
▁1955	-10.5619
▁survey	-10.5628
▁agree	-10.5629
▁extension	-10.5637
▁prim	-10.5654
▁1919	-10.5667
▁shall	-10.5669
▁Norway	-10.5671
▁1954	-10.5673
▁Lithuania	-10.5673
▁personnel	-10.5674
▁spirit	-10.5681
▁approved	-10.5683
▁fifth	-10.5683
▁daddy	-10.569
Error	-10.5695
▁doctrine	-10.5701
▁typical	-10.5716
▁alcohol	-10.5719
▁Microsoft	-10.5728
▁background	-10.5729
▁Wilson	-10.5738
▁puppy	-10.5747
▁proceed	-10.5757
▁parameter	-10.5758
▁1937	-10.5765
▁1914	-10.5772
▁municipal	-10.5774
▁jurisdiction	-10.5774
▁assassin	-10.5774
▁Studies	-10.5784
▁perhaps	-10.5784
▁Auto	-10.5789
▁producing	-10.5802
▁Peace	-10.5809
▁Serbia	-10.5812
▁Method	-10.5821
▁Jacob	-10.5821
▁Portugal	-10.583
▁algebra	-10.583
▁Jersey	-10.5839
▁fought	-10.5849
▁sovereign	-10.5867
▁Article	-10.5868
▁withdraw	-10.5876
▁hypo	-10.5877
▁occupied	-10.5886
▁Hitler	-10.5886
▁steam	-10.5893
▁extent	-10.5896
▁integer	-10.5896
▁disappear	-10.5914
▁professor	-10.5914
▁conference	-10.5914
▁1936	-10.5914
▁conquer	-10.5915
▁tape	-10.5931
▁choose	-10.5933
▁dimension	-10.5948
▁roughly	-10.5952
▁1929	-10.5968
▁1951	-10.5968
▁Buddhist	-10.597
▁Theatre	-10.5974
▁drove	-10.5999
▁contest	-10.6001
▁curve	-10.6005
▁Knight	-10.6011
▁opposite	-10.6017
▁Denmark	-10.6017
▁draft	-10.6017
▁Political	-10.6027
▁Night	-10.6027
▁recognition	-10.6036
▁bottle	-10.6042
▁appoint	-10.6047
▁Wild	-10.6051
▁Mount	-10.6057
▁Corporation	-10.6074
▁prohibit	-10.6074
▁bottom	-10.6074
▁Taiwan	-10.6084
▁Foundation	-10.6093
▁gender	-10.6094
crypt	-10.6098
▁float	-10.61
front	-10.6104
▁1922	-10.6104
▁dominant	-10.6112
▁carrier	-10.6113
▁narrow	-10.6122
▁involving	-10.6122
▁1924	-10.6131
▁colorful	-10.6141
▁Source	-10.6141
space	-10.6142
▁Anglo	-10.6151
▁Hungary	-10.617
▁translated	-10.617
▁teddy	-10.617
▁thick	-10.6171
▁mental	-10.6182
▁unusual	-10.6189
▁trace	-10.6198
▁blanket	-10.6218
▁1901	-10.6239
▁daily	-10.6247
▁comparison	-10.6257
→	-10.6266
▁kiss	-10.6271
▁worried	-10.6276
▁smooth	-10.6286
scale	-10.6293
▁census	-10.6295
▁loyal	-10.6296
▁Similar	-10.6305
▁Ohio	-10.6305
▁Armenia	-10.6309
▁premier	-10.6315
▁elephant	-10.6334
▁alleged	-10.6335
▁Lincoln	-10.6344
▁Technology	-10.6344
▁virtual	-10.6344
▁chamber	-10.6344
▁mistake	-10.6354
▁1921	-10.6354
▁Liberal	-10.6364
mouth	-10.6366
▁straight	-10.6383
▁laureate	-10.6393
▁stepped	-10.6398
▁saint	-10.6408
ī	-10.6413
▁Massachusetts	-10.6413
▁budget	-10.6413
▁facilities	-10.6413
▁Julian	-10.6413
▁robot	-10.6414
▁transmission	-10.6426
▁Commonwealth	-10.6432
▁pocket	-10.6433
Univers	-10.6438
▁Centre	-10.6453
▁Light	-10.6453
▁1935	-10.6455
▁Albania	-10.6462
▁essay	-10.6462
▁breath	-10.6462
▁indigenous	-10.6472
▁Alfred	-10.6472
▁Conference	-10.6482
▁1926	-10.649
▁twice	-10.6492
length	-10.6494
media	-10.6498
▁flood	-10.6502
▁Author	-10.6541
▁legend	-10.6569
▁expert	-10.6602
▁invade	-10.6606
▁serving	-10.6615
▁organisation	-10.6624
▁administrative	-10.6632
▁Croatia	-10.6632
▁knee	-10.6647
▁Christmas	-10.6653
▁classification	-10.666
▁committee	-10.6672
▁attributed	-10.6682
▁expedition	-10.6682
▁agricultural	-10.6702
▁Ministry	-10.6702
▁Computer	-10.6702
▁rural	-10.6703
▁atmosphere	-10.6712
▁storage	-10.6713
▁drew	-10.6719
▁Transport	-10.6726
▁gentle	-10.6734
▁extinct	-10.6745
▁inhabitants	-10.6753
▁schedule	-10.6753
▁advocate	-10.6763
▁featuring	-10.6773
α	-10.6784
▁Muhammad	-10.6784
▁submarine	-10.6784
▁1925	-10.6786
width	-10.6789
▁grateful	-10.6794
▁Sign	-10.6801
▁Mediterranean	-10.6804
▁Samuel	-10.6804
▁NFL	-10.6814
▁weather	-10.6814
▁statue	-10.6817
▁strict	-10.6828
▁honey	-10.6834
É	-10.6845
▁Finnish	-10.6845
▁interface	-10.6848
▁colonies	-10.6855
▁array	-10.6857
▁descent	-10.6859
▁1928	-10.6873
▁sitting	-10.6883
▁1934	-10.6885
▁Natural	-10.6886
▁manufacturing	-10.6896
▁remove	-10.6901
▁Short	-10.6908
▁shore	-10.6912
▁neighbour	-10.6917
▁Sunday	-10.6922
▁mobile	-10.6928
▁1923	-10.6936
▁household	-10.6938
▁Field	-10.6938
▁empty	-10.6948
▁absolute	-10.6969
▁knock	-10.699
ñ	-10.7
▁investigation	-10.7
▁renamed	-10.7011
▁easy	-10.7011
▁Summer	-10.7021
▁buried	-10.7021
▁snack	-10.7032
▁rugby	-10.7042
▁1932	-10.7045
▁occupation	-10.7053
▁splash	-10.7063
▁magnitude	-10.7074
▁dominated	-10.7084
▁Sultan	-10.7095
▁radical	-10.7098
▁comfort	-10.7105
▁surrender	-10.7116
▁Jordan	-10.7116
Okay	-10.7119
▁debt	-10.7132
▁1927	-10.7145
▁throne	-10.7164
▁manuscript	-10.7169
▁modified	-10.7174
▁graduate	-10.7211
▁pioneer	-10.7211
▁wound	-10.7211
▁scheme	-10.7211
▁Media	-10.7212
▁Davis	-10.7215
▁denote	-10.7215
▁playwright	-10.7222
▁audio	-10.7223
▁Television	-10.7243
▁accused	-10.7243
▁encounter	-10.7243
▁victim	-10.7243
▁Michigan	-10.7265
▁enemy	-10.7265
▁decide	-10.7283
▁refuge	-10.7297
▁creative	-10.7297
▁1931	-10.7315
▁scream	-10.7318
▁alliance	-10.7319
▁monkey	-10.7329
▁Moscow	-10.734
▁revenue	-10.734
▁chapter	-10.734
▁Pennsylvania	-10.7351
▁minimum	-10.7351
▁Front	-10.7353
▁Province	-10.7361
▁profit	-10.7362
▁bench	-10.7367
▁agriculture	-10.7372
▁IBM	-10.7373
▁pump	-10.7373
▁Carolina	-10.7383
synthesis	-10.7383
▁Bishop	-10.7394
▁Labour	-10.7394
▁regulation	-10.7394
▁gradually	-10.7427
▁cited	-10.744
▁Switzerland	-10.7459
▁cardinal	-10.746
▁Clark	-10.7464
▁twenty	-10.747
▁queen	-10.7471
▁alphabet	-10.7481
▁merchant	-10.7481
▁probability	-10.7492
▁swimming	-10.7492
▁Wolf	-10.7496
▁Palestinian	-10.7503
▁snake	-10.7503
▁Multi	-10.7508
▁theologian	-10.7514
▁borrow	-10.7514
▁entry	-10.7516
▁medal	-10.7524
▁evolved	-10.7547
▁sustain	-10.7547
▁franchise	-10.7569
▁Douglas	-10.758
▁rational	-10.7582
▁cinema	-10.7582
2,000	-10.7583
▁astronomer	-10.7591
▁category	-10.7591
▁visible	-10.7592
▁controversial	-10.7613
▁mirror	-10.7613
▁earthquake	-10.7624
▁Instead	-10.7624
▁melt	-10.764
▁prayer	-10.7648
▁Guinea	-10.7649
▁universities	-10.7658
dimensional	-10.7661
▁Network	-10.7691
▁deposit	-10.7702
▁hyper	-10.7703
▁neutron	-10.7714
▁Religion	-10.7714
▁racing	-10.7728
▁infrastructure	-10.7747
▁vegetable	-10.7747
▁false	-10.7748
▁ruin	-10.775
▁cancel	-10.7762
▁Brook	-10.7765
▁destruction	-10.777
▁copies	-10.777
▁cluster	-10.7781
▁carrot	-10.7782
▁Mongol	-10.7782
▁hypothesis	-10.7792
▁telephone	-10.7793
Please	-10.7809
▁filter	-10.7815
▁segment	-10.7815
▁immigrant	-10.7826
▁constitute	-10.7826
▁Welsh	-10.7827
▁assigned	-10.7828
▁lyric	-10.7829
▁coalition	-10.7838
▁joke	-10.7861
▁strategy	-10.7872
▁intention	-10.7872
▁ordinary	-10.7883
▁Third	-10.7895
▁Napoleon	-10.7906
▁efficient	-10.7906
▁Captain	-10.7906
▁neither	-10.7906
▁restaurant	-10.7917
▁monitor	-10.7917
▁emotion	-10.7918
▁decay	-10.793
▁appropriate	-10.7963
▁bacteria	-10.7975
▁Malaysia	-10.7986
▁atomic	-10.799
▁trading	-10.7998
▁illegal	-10.8009
▁destination	-10.8009
▁protocol	-10.8021
▁Defense	-10.8021
▁jazz	-10.8044
volution	-10.8049
▁emphasis	-10.8067
▁committed	-10.8079
▁senior	-10.8079
▁cheese	-10.8079
▁Sometimes	-10.8079
▁invited	-10.808
▁whale	-10.8082
▁conservative	-10.809
▁lecture	-10.809
▁valley	-10.8091
▁exceed	-10.8093
western	-10.8095
▁Florida	-10.8125
▁calculate	-10.8125
▁tunnel	-10.8125
▁intellectual	-10.8137
▁fragment	-10.8137
▁console	-10.8139
▁Caesar	-10.815
▁exploring	-10.816
▁accurate	-10.8172
▁tissue	-10.8172
▁kilo	-10.8178
▁theoretical	-10.8184
▁biggest	-10.8184
Mommy	-10.8201
▁neutral	-10.8207
š	-10.8219
▁cease	-10.8222
▁supposed	-10.8243
▁legislation	-10.8255
▁Fluffy	-10.8266
▁Renaissance	-10.8266
▁arrangement	-10.8266
ū	-10.8434
×	-10.8543
а	-10.8677
ú	-10.8889
à	-10.9301
ć	-10.9567
ø	-10.9799
ë	-11.0265
ã	-11.1381
ο	-11.1478
о	-11.205
μ	-11.2491
~	-11.2729
ô	-11.3087
•	-11.3087
ă	-11.3125
Æ	-11.3241
е	-11.3241
ń	-11.3339
ı	-11.3538
č	-11.3618
′	-11.4095
и	-11.4116
‘	-11.4201
β	-11.4331
å	-11.444
æ	-11.444
н	-11.4506
ð	-11.4528
ν	-11.4617
@	-11.482
τ	-11.4843
ρ	-11.4958
р	-11.5168
ς	-11.5407
с	-11.5456
ι	-11.5505
ε	-11.5752
Á	-11.6057
ê	-11.6187
ē	-11.6345
σ	-11.6669
λ	-11.6751
т	-11.6807
ʼ	-11.6947
ß	-11.7233
к	-11.8144
ș	-11.8208
Š	-11.8666
ا	-11.8904
π	-11.8904
ï	-11.9007
ś	-11.9396
†	-11.9432
л	-11.9504
κ	-11.9688
в	-11.9763
ğ	-12.0066
^	-12.0105
·	-12.038
ʻ	-12.0499
ş	-12.0499
ò	-12.0703
î	-12.0827
Ö	-12.0868
±	-12.1122
ž	-12.1382
у	-12.1605
φ	-12.1695
ý	-12.1832
δ	-12.1878
Ō	-12.1878
ę	-12.1971
γ	-12.2065
θ	-12.2497
⁄	-12.2696
д	-12.3053
м	-12.3105
ل	-12.3263
η	-12.3316
ω	-12.3423
י	-12.3586
Δ	-12.3697
ḥ	-12.3921
ʿ	-12.3978
ì	-12.3978
Ā	-12.415
≤	-12.415
ί	-12.4686
Ç	-12.4809
ė	-12.4809
υ	-12.4933
§	-12.4996
ř	-12.4996
ő	-12.506
ṇ	-12.5252
ě	-12.5514
Ś	-12.5514
я	-12.5581
п	-12.5648
ו	-12.5991
ό	-12.6131
Å	-12.6131
ą	-12.6202
ț	-12.6273
Ü	-12.6418
ṣ	-12.6418
İ	-12.6491
ə	-12.6491
Đ	-12.6788
г	-12.7017
Č	-12.7017
ṭ	-12.7173
і	-12.7251
≈	-12.7331
ù	-12.7411
«	-12.7655
»	-12.7905
þ	-12.8161
Ş	-12.8161
ы	-12.8248
ά	-12.8336
א	-12.8424
ż	-12.8514
õ	-12.8604
‐	-12.8604
ה	-12.8695
Σ	-12.8786
χ	-12.8879
б	-12.9067
ي	-12.9067
ч	-12.9453
ر	-12.9453
و	-12.9453
ר	-12.9453
û	-12.9753
ن	-12.9958
ל	-13.0063
م	-13.0274
Ł	-13.0274
з	-13.0274
й	-13.0274
Ž	-13.0491
子	-13.0491
Ø	-13.06
⋅	-13.0712
ή	-13.0824
ב	-13.0824
王	-13.0937
ש	-13.1052
ь	-13.1286
מ	-13.1286
्	-13.1405
ạ	-13.1405
ת	-13.1526
ḍ	-13.1771
đ	-13.2151
ب	-13.2681
ύ	-13.2818
س	-13.2818
Ω	-13.2818
ṃ	-13.2818
Þ	-13.2818
ц	-13.3098
ت	-13.3098
М	-13.3241
≥	-13.3386
ṛ	-13.3682
ː	-13.3987
̃	-13.4143
親	-13.4143
د	-13.4302
έ	-13.4302
ź	-13.4627
ǎ	-13.4627
ψ	-13.4627
ּ	-13.4627
ệ	-13.4627
Π	-13.4794
Ḥ	-13.4794
Ż	-13.4964
र	-13.5136
ấ	-13.5136
К	-13.549
С	-13.549
ة	-13.549
∈	-13.549
ע	-13.5672
Í	-13.5672
ǔ	-13.5857
ʾ	-13.5857
∨	-13.5857
ж	-13.5857
Ä	-13.6046
ा	-13.6434
¥	-13.6434
ְ	-13.6434
≠	-13.6434
ד	-13.6434
ǐ	-13.6634
כ	-13.6634
́	-13.6634
ع	-13.6838
✸	-13.6838
ư	-13.6838
源	-13.6838
Φ	-13.7046
←	-13.7046
Ú	-13.7259
ơ	-13.7259
х	-13.7259
≡	-13.7259
∞	-13.7477
А	-13.7477
Б	-13.7477
ň	-13.7699
Α	-13.7699
נ	-13.7699
َ	-13.7926
∗	-13.7926
ξ	-13.7926
ف	-13.8159
்	-13.8159
ễ	-13.8159
Г	-13.8397
Κ	-13.8397
ἀ	-13.8641
ŵ	-13.8641
В	-13.8641
ם	-13.8891
ਾ	-13.8891
原	-13.8891
¢	-13.8891
ш	-13.8891
大	-13.8891
Ε	-13.9147
ʃ	-13.9147
Λ	-13.9147
ك	-13.9147
ế	-13.9147
П	-13.941
ق	-13.941
∧	-13.941
藤	-13.968
⏑	-13.9681
ˈ	-13.9958
ĝ	-13.9958
ħ	-13.9958
ح	-14.0244
ŏ	-14.0244
ɪ	-14.0244
ю	-14.0244
서	-14.0244
ġ	-14.0244
ζ	-14.0244
ח	-14.0244
ִ	-14.0538
म	-14.0538
⊃	-14.0538
Н	-14.0538
ф	-14.0841
̄	-14.0841
त	-14.0841
ả	-14.0841
ĕ	-14.1154
ָ	-14.1154
ی	-14.1154
ọ	-14.1154
ه	-14.1476
皇	-14.1476
¬	-14.1476
内	-14.1476
Â	-14.181
ṅ	-14.181
↔	-14.181
호	-14.181
ј	-14.181
ֵ	-14.181
া	-14.181
ק	-14.181
Р	-14.2154
͡	-14.2154
ῶ	-14.2154
₯	-14.2154
번	-14.2154
ŭ	-14.2154
क	-14.2154
ŋ	-14.2154
天	-14.2154
ɛ	-14.2512
ů	-14.2512
Μ	-14.2512
ầ	-14.2512
Ἀ	-14.2512
이	-14.2512
э	-14.2882
ج	-14.2882
ि	-14.2882
Т	-14.2882
ῦ	-14.3266
ĉ	-14.3267
ǫ	-14.3267
ן	-14.3267
ἐ	-14.3267
Œ	-14.3267
Д	-14.3267
∆	-14.3267
ɣ	-14.3667
Θ	-14.3667
ס	-14.3667
ộ	-14.3667
⟩	-14.3667
⟨	-14.3667
ン	-14.4083
ط	-14.4083
ÿ	-14.4083
פ	-14.4083
स	-14.4083
ồ	-14.4083
ি	-14.4083
ַ	-14.4083
一	-14.4083
ῖ	-14.4518
ー	-14.4518
©	-14.4518
ņ	-14.4518
Ι	-14.4518
회	-14.4518
ъ	-14.4518
수	-14.4518
원	-14.4518
ு	-14.4972
ώ	-14.4972
ਹ	-14.4972
ḗ	-14.4972
ṯ	-14.4972
Ț	-14.4973
∪	-14.4973
⊕	-14.4973
的	-14.4973
أ	-14.5449
ش	-14.5449
Τ	-14.5449
Χ	-14.5449
य	-14.5449
ǒ	-14.5449
ʒ	-14.5449
ֹ	-14.5449
女	-14.5449
ў	-14.5449
Ṭ	-14.5449
法	-14.5449
人	-14.5449
Β	-14.5949
ਰ	-14.5949
ल	-14.5949
¦	-14.5949
∩	-14.5949
◌	-14.5949
ḫ	-14.5949
の	-14.5949
中	-14.5949
日	-14.5949
ɐ	-14.6475
Л	-14.6475
خ	-14.6475
Е	-14.6475
О	-14.6475
ị	-14.6475
지	-14.6475
द	-14.6475
র	-14.6475
ὶ	-14.6475
세	-14.6475
자	-14.6475
ز	-14.7031
प	-14.7031
வ	-14.7031
ა	-14.7031
À	-14.7031
ׁ	-14.7031
ِ	-14.7031
न	-14.7031
⇒	-14.7031
전	-14.7031
த	-14.7031
Ο	-14.7619
স	-14.7619
니	-14.7619
У	-14.7619
♭	-14.7619
Ã	-14.7619
Ñ	-14.7619
ʊ	-14.7619
Я	-14.7619
ג	-14.7619
ḏ	-14.7619
ắ	-14.7619
아	-14.7619
三	-14.7619
学	-14.7619
И	-14.8244
Γ	-14.8244
白	-14.8244
Ć	-14.8244
ਿ	-14.8244
ੀ	-14.8244
ḇ	-14.8244
ụ	-14.8244
ứ	-14.8244
ἰ	-14.8244
⇄	-14.8244
가	-14.8244
È	-14.8244
ľ	-14.8244
щ	-14.8244
ी	-14.8244
Ἰ	-14.8244
ন	-14.8244
ẓ	-14.8244
教	-14.8244
금	-14.8244
上	-14.8244
国	-14.8244
ท	-14.891
字	-14.891
อ	-14.891
ɑ	-14.891
З	-14.891
ז	-14.891
다	-14.891
ʀ	-14.891
І	-14.891
व	-14.891
ह	-14.891
ਤ	-14.891
ਦ	-14.891
ῆ	-14.891
⊂	-14.891
디	-14.891
리	-14.891
ǀ	-14.891
ט	-14.891
∴	-14.891
五	-14.891
貞	-14.891
ὐ	-14.891
│	-14.891
Ν	-14.9625
ਸ	-14.9625
ֶ	-14.9625
ं	-14.9625
च	-14.9625
ர	-14.9625
是	-14.9625
ਕ	-14.9625
ḵ	-14.9625
ُ	-14.9625
ố	-14.9625
‰	-14.9625
道	-14.9625
。	-14.9625
有	-14.9625
用	-15.0394
ἄ	-15.0394
ʔ	-15.0394
̀	-15.0394
צ	-15.0394
े	-15.0394
হ	-15.0394
า	-15.0394
ȅ	-15.0394
ɔ	-15.0394
ờ	-15.0394
∅	-15.0394
名	-15.0394
正	-15.0394
보	-15.0394
ǵ	-15.0394
ს	-15.0394
ĩ	-15.0394
ɡ	-15.0394
ज	-15.0394
ḷ	-15.0394
成	-15.0394
不	-15.1227
ம	-15.1227
ி	-15.1227
明	-15.1227
ļ	-15.1227
Υ	-15.1227
└	-15.1227
시	-15.1227
ţ	-15.1227
ȁ	-15.1227
ध	-15.1227
‒	-15.1227
ட	-15.1227
ὁ	-15.1227
ὰ	-15.1227
∂	-15.1227
年	-15.1227
장	-15.1227
น	-15.1227
宗	-15.1227
ე	-15.1227
文	-15.1227
号	-15.2136
ய	-15.2136
Ρ	-15.2136
ਪ	-15.2136
რ	-15.2136
ు	-15.2136
ĭ	-15.2136
ء	-15.2136
ص	-15.2136
ẑ	-15.2136
ừ	-15.2136
二	-15.2136
̆	-15.2136
ّ	-15.2136
ἱ	-15.2136
⁠	-15.2136
⊦	-15.2136
に	-15.2136
九	-15.2136
仁	-15.2136
력	-15.2136
청	-15.2136
발	-15.2136
정	-15.2136
ـ	-15.2136
ত	-15.2136
下	-15.2136
্	-15.2136
数	-15.2137
க	-15.3136
ก	-15.3136
Э	-15.3136
ْ	-15.3136
本	-15.3136
ʽ	-15.3136
Ψ	-15.3136
ु	-15.3136
氏	-15.3136
¡	-15.3136
Ī	-15.3136
ի	-15.3136
ך	-15.3136
ष	-15.3136
ਲ	-15.3136
ੇ	-15.3136
เ	-15.3136
ი	-15.3136
‡	-15.3136
⊆	-15.3136
증	-15.3136
ਨ	-15.3136
ḳ	-15.3136
ṓ	-15.3136
ữ	-15.3136
课	-15.3136
部	-15.3136
金	-15.3136
영	-15.3136
®	-15.3136
Ġ	-15.3136
ী	-15.3136
↑	-15.3136
と	-15.3136
新	-15.3136
理	-15.3137
Ф	-15.4247
ヴ	-15.4247
后	-15.4247
‛	-15.4247
Ô	-15.4248
田	-15.4248
高	-15.4248
ꜣ	-15.4248
Ľ	-15.4248
ŝ	-15.4248
ग	-15.4248
山	-15.4248
산	-15.4248
신	-15.4248
ķ	-15.4248
ť	-15.4248
ų	-15.4248
̂	-15.4248
̓	-15.4248
̥	-15.4248
Η	-15.4248
ւ	-15.4248
ث	-15.4248
ض	-15.4248
ன	-15.4248
ง	-15.4248
ᅮ	-15.4248
ḱ	-15.4248
ậ	-15.4248
≪	-15.4248
十	-15.4248
地	-15.4248
姫	-15.4248
되	-15.4248
사	-15.4248
요	-15.4248
인	-15.4248
주	-15.4248
ย	-15.4248
史	-15.4248
方	-15.4248
য	-15.4248
入	-15.4248
平	-15.4248
以	-15.4248
信	-15.4248
能	-15.5497
জ	-15.5497
小	-15.5497
동	-15.5497
̪	-15.5498
Ч	-15.5498
ਵ	-15.5498
ழ	-15.5498
ỳ	-15.5498
ᾶ	-15.5498
ċ	-15.5498
Ħ	-15.5498
ǧ	-15.5498
ک	-15.5498
片	-15.5498
ũ	-15.5498
ŷ	-15.5498
अ	-15.5498
్	-15.5498
ᄋ	-15.5498
Ṣ	-15.5498
Ẓ	-15.5498
ẹ	-15.5498
き	-15.5498
る	-15.5498
娘	-15.5498
節	-15.5498
象	-15.5498
院	-15.5498
의	-15.5498
제	-15.5498
할	-15.5498
형	-15.5498
ǣ	-15.5498
̯	-15.5498
ੰ	-15.5498
ἡ	-15.5498
て	-15.5498
ィ	-15.5498
公	-15.5498
安	-15.5498
物	-15.5498
西	-15.5498
馬	-15.5498
ो	-15.5498
、	-15.5498
は	-15.5498
Ḍ	-15.5498
ὑ	-15.5498
계	-15.5498
ো	-15.5498
ร	-15.5498
・	-15.5498
包	-15.5498
可	-15.5498
务	-15.5498
相	-15.5498
神	-15.5498
心	-15.5498
会	-15.5498
和	-15.5498
自	-15.5498
イ	-15.6926
ั	-15.6926
ப	-15.6926
シ	-15.6926
ল	-15.6926
ா	-15.6926
ὖ	-15.6926
ὄ	-15.6926
ち	-15.6926
आ	-15.6926
い	-15.6926
ル	-15.6926
之	-15.6926
要	-15.6926
ģ	-15.6926
ʌ	-15.6926
ও	-15.6926
ᅲ	-15.6926
あ	-15.6926
ト	-15.6926
ラ	-15.6926
武	-15.6926
ď	-15.6926
į	-15.6926
ȕ	-15.6926
̑	-15.6926
Ζ	-15.6926
ե	-15.6926
إ	-15.6926
ड	-15.6926
ू	-15.6926
ว	-15.6926
ủ	-15.6926
‖	-15.6926
⇌	-15.6926
國	-15.6926
太	-15.6926
条	-15.6926
觀	-15.6926
音	-15.6926
과	-15.6926
부	-15.6926
여	-15.6926
용	-15.6926
ئ	-15.6926
ᅳ	-15.6926
六	-15.6926
기	-15.6926
ἔ	-15.6926
ὀ	-15.6926
ウ	-15.6926
업	-15.6926
ब	-15.6926
た	-15.6926
リ	-15.6926
無	-15.6926
陽	-15.6926
문	-15.6926
ё	-15.6926
ま	-15.6926
件	-15.6926
手	-15.6926
治	-15.6926
일	-15.6926
否	-15.6926
时	-15.6926
표	-15.6926
蓮	-15.6926
ক	-15.6926
∙	-15.6926
事	-15.6926
出	-15.6926
社	-15.6926
良	-15.6926
格	-15.6926
生	-15.6927
█	-15.8592
分	-15.8593
码	-15.8593
使	-15.8593
ɾ	-15.8593
ׂ	-15.8593
ข	-15.8593
ო	-15.8593
ん	-15.8593
程	-15.8593
ű	-15.8593
味	-15.8593
Ì	-15.8593
Ē	-15.8593
ʹ	-15.8593
њ	-15.8593
ẩ	-15.8593
Ἑ	-15.8593
刀	-15.8593
回	-15.8593
帝	-15.8593
門	-15.8593
青	-15.8593
차	-15.8593
ɦ	-15.8593
̈	-15.8593
є	-15.8593
ण	-15.8593
।	-15.8593
ੋ	-15.8593
இ	-15.8593
న	-15.8593
พ	-15.8593
Ἐ	-15.8593
⊗	-15.8593
⍵	-15.8593
♠	-15.8593
♯	-15.8593
ァ	-15.8593
ア	-15.8593
書	-15.8593
月	-15.8593
请	-15.8593
那	-15.8593
阿	-15.8593
드	-15.8593
스	-15.8593
코	-15.8593
𐐪	-15.8593
𐑄	-15.8593
𝄆	-15.8593
―	-15.8593
ⲓ	-15.8593
け	-15.8593
七	-15.8593
元	-15.8593
光	-15.8593
八	-15.8593
千	-15.8593
多	-15.8593
義	-15.8593
라	-15.8593
류	-15.8593
ɲ	-15.8593
長	-15.8593
국	-15.8593
テ	-15.8593
உ	-15.8593
ా	-15.8593
オ	-15.8593
്	-15.8593
校	-15.8593
ェ	-15.8593
Ж	-15.8593
径	-15.8593
传	-15.8593
式	-15.8593
参	-15.8593
对	-15.8593
ิ	-16.0593
ไ	-16.0593
百	-16.0593
ǂ	-16.0593
ব	-16.0593
ి	-16.0593
ὅ	-16.0593
《	-16.0593
メ	-16.0593
作	-16.0593
林	-16.0593
Ê	-16.0593
ȃ	-16.0593
ȍ	-16.0593
ਜ	-16.0593
ੜ	-16.0593
ᄉ	-16.0593
傳	-16.0593
川	-16.0593
石	-16.0593
羅	-16.0593
래	-16.0593
방	-16.0593
Ò	-16.0593
Ą	-16.0593
Ċ	-16.0593
Ū	-16.0593
ǁ	-16.0593
ǃ	-16.0593
ȇ	-16.0593
ȉ	-16.0593
̣	-16.0593
Ш	-16.0593
غ	-16.0593
ञ	-16.0593
श	-16.0593
ਂ	-16.0593
ੵ	-16.0593
బ	-16.0593
మ	-16.0593
ვ	-16.0593
ლ	-16.0593
ሕ	-16.0593
ṁ	-16.0593
ặ	-16.0593
ὸ	-16.0593
₹	-16.0593
↓	-16.0593
∃	-16.0593
∘	-16.0593
⊙	-16.0593
♣	-16.0593
》	-16.0593
し	-16.0593
り	-16.0593
世	-16.0593
伊	-16.0593
制	-16.0593
北	-16.0593
周	-16.0593
囧	-16.0593
士	-16.0593
将	-16.0593
必	-16.0593
或	-16.0593
棋	-16.0593
橘	-16.0593
水	-16.0593
清	-16.0593
研	-16.0593
祖	-16.0593
禮	-16.0593
究	-16.0593
郡	-16.0593
重	-16.0593
面	-16.0593
냐	-16.0593
는	-16.0593
록	-16.0593
목	-16.0593
바	-16.0593
배	-16.0593
상	-16.0593
식	-16.0593
조	-16.0593
︎	-16.0593
𐐹	-16.0593
𐐺	-16.0593
𝄇	-16.0593
Ð	-16.0593
ա	-16.0593
ม	-16.0593
฿	-16.0593
្	-16.0593
す	-16.0593
ほ	-16.0593
南	-16.0593
始	-16.0593
当	-16.0593
摩	-16.0593
科	-16.0593
蔣	-16.0593
파	-16.0593
უ	-16.0593
ブ	-16.0593
基	-16.0593
路	-16.0593
ド	-16.0593
个	-16.0593
合	-16.0593
ম	-16.0593
ర	-16.0593
版	-16.0593
গ	-16.0593
查	-16.0593
兄	-16.0593
律	-16.0593
性	-16.0593
在	-16.0593
レ	-16.3093
ុ	-16.3093
フ	-16.3093
行	-16.3093
班	-16.3093
گ	-16.3093
ಾ	-16.3093
ᒃ	-16.3093
没	-16.3093
略	-16.3093
Έ	-16.3093
ਗ	-16.3093
守	-16.3093
連	-16.3093
ರ	-16.3093
如	-16.3093
密	-16.3093
开	-16.3093
玄	-16.3093
간	-16.3093
ǝ	-16.3093
Х	-16.3093
ү	-16.3093
ܐ	-16.3093
ख	-16.3093
ਇ	-16.3093
ਖ	-16.3093
₽	-16.3093
カ	-16.3093
バ	-16.3093
家	-16.3093
波	-16.3093
融	-16.3093
대	-16.3093
Ý	-16.3093
Ḳ	-16.3093
Ọ	-16.3093
∀	-16.3093
∼	-16.3093
⊢	-16.3093
典	-16.3093
复	-16.3093
蘇	-16.3093
間	-16.3093
ȗ	-16.3093
ȳ	-16.3093
ʁ	-16.3093
ʉ	-16.3093
ʎ	-16.3093
˹	-16.3093
˺	-16.3093
̊	-16.3093
Ξ	-16.3093
Ц	-16.3093
Ե	-16.3093
Ւ	-16.3093
մ	-16.3093
ն	-16.3093
ֲ	-16.3093
ץ	-16.3093
ٰ	-16.3093
ܝ	-16.3093
ܡ	-16.3093
ܢ	-16.3093
ܪ	-16.3093
ै	-16.3093
ই	-16.3093
ে	-16.3093
ਅ	-16.3093
ੌ	-16.3093
ద	-16.3093
ల	-16.3093
ె	-16.3093
ნ	-16.3093
ម	-16.3093
ẖ	-16.3093
ẽ	-16.3093
ὺ	-16.3093
ᾱ	-16.3093
ῥ	-16.3093
‍	-16.3093
∇	-16.3093
⏕	-16.3093
♥	-16.3093
ⲟ	-16.3093
ⲫ	-16.3093
げ	-16.3093
こ	-16.3093
で	-16.3093
ゃ	-16.3093
ビ	-16.3093
プ	-16.3093
为	-16.3093
倭	-16.3093
则	-16.3093
勢	-16.3093
噌	-16.3093
头	-16.3093
定	-16.3093
実	-16.3093
局	-16.3093
張	-16.3093
录	-16.3093
徳	-16.3093
憲	-16.3093
所	-16.3093
来	-16.3093
海	-16.3093
玉	-16.3093
発	-16.3093
称	-16.3093
章	-16.3093
端	-16.3093
語	-16.3093
論	-16.3093
香	-16.3093
ꜥ	-16.3093
거	-16.3093
경	-16.3093
공	-16.3093
당	-16.3093
도	-16.3093
르	-16.3093
소	-16.3093
오	-16.3093
채	-16.3093
처	-16.3093
태	-16.3093
트	-16.3093
팩	-16.3093
현	-16.3093
𐐱	-16.3093
𐐲	-16.3093
𐐻	-16.3093
𐑉	-16.3093
੍	-16.3093
ể	-16.3093
ⲁ	-16.3093
ム	-16.3093
保	-16.3093
机	-16.3093
東	-16.3093
點	-16.3093
구	-16.3093
반	-16.3093
본	-16.3093
외	-16.3093
տ	-16.3093
บ	-16.3093
រ	-16.3093
├	-16.3093
が	-16.3093
そ	-16.3093
修	-16.3093
登	-16.3093
通	-16.3093
ǩ	-16.3093
全	-16.3093
ะ	-16.3093
キ	-16.3093
ジ	-16.3093
ス	-16.3093
務	-16.3093
发	-16.3093
主	-16.3093
网	-16.3093
ต	-16.3093
区	-16.3093
度	-16.3093
接	-16.3093
次	-16.3093
民	-16.3093
直	-16.3093
他	-16.3093
精	-16.3093
等	-16.3093
化	-16.3093
尊	-16.3093
▀	-16.6425
建	-16.6426
ង	-16.6426
ϊ	-16.6426
ด	-16.6426
ქ	-16.6426
ស	-16.6426
エ	-16.6426
值	-16.6426
客	-16.6426
引	-16.6426
绩	-16.6426
期	-16.6426
پ	-16.6426
ट	-16.6426
గ	-16.6426
ᐃ	-16.6426
Ἔ	-16.6426
ἶ	-16.6426
Ἱ	-16.6426
云	-16.6426
儀	-16.6426
蔵	-16.6426
諸	-16.6426
ὕ	-16.6426
反	-16.6426
御	-16.6426
Ě	-16.6426
ȏ	-16.6426
ɬ	-16.6426
̔	-16.6426
̱	-16.6426
ϝ	-16.6426
ؤ	-16.6426
ہ	-16.6426
थ	-16.6426
ਧ	-16.6426
எ	-16.6426
ಿ	-16.6426
್	-16.6426
൧	-16.6426
བ	-16.6426
ḻ	-16.6426
Ṇ	-16.6426
√	-16.6426
ご	-16.6426
ぢ	-16.6426
よ	-16.6426
ミ	-16.6426
伝	-16.6426
兵	-16.6426
劉	-16.6426
善	-16.6426
壁	-16.6426
奇	-16.6426
我	-16.6426
服	-16.6426
朝	-16.6426
桂	-16.6426
Ğ	-16.6426
Ő	-16.6426
ŕ	-16.6426
Ź	-16.6426
ƕ	-16.6426
Ư	-16.6426
ǜ	-16.6426
ɫ	-16.6426
ɯ	-16.6426
ɽ	-16.6426
ʕ	-16.6426
ͅ	-16.6426
͠	-16.6426
Й	-16.6426
Ю	-16.6426
ї	-16.6426
ћ	-16.6426
Ҳ	-16.6426
ո	-16.6426
ր	-16.6426
ք	-16.6426
״	-16.6426
ى	-16.6426
ٌ	-16.6426
ڠ	-16.6426
ܳ	-16.6426
ए	-16.6426
़	-16.6426
দ	-16.6426
ਬ	-16.6426
ੂ	-16.6426
క	-16.6426
త	-16.6426
പ	-16.6426
ු	-16.6426
ี	-16.6426
་	-16.6426
თ	-16.6426
ᄇ	-16.6426
ሪ	-16.6426
ổ	-16.6426
ỗ	-16.6426
ỹ	-16.6426
ἁ	-16.6426
ἕ	-16.6426
ἢ	-16.6426
ὥ	-16.6426
₩	-16.6426
⇔	-16.6426
∸	-16.6426
⌊	-16.6426
⌋	-16.6426
♦	-16.6426
⟶	-16.6426
ⲙ	-16.6426
ⲛ	-16.6426
ⲣ	-16.6426
〈	-16.6426
〉	-16.6426
」	-16.6426
え	-16.6426
じ	-16.6426
゚	-16.6426
コ	-16.6426
サ	-16.6426
ッ	-16.6426
ツ	-16.6426
ヤ	-16.6426
与	-16.6426
井	-16.6426
代	-16.6426
伴	-16.6426
倉	-16.6426
卿	-16.6426
取	-16.6426
命	-16.6426
夕	-16.6426
夜	-16.6426
姓	-16.6426
學	-16.6426
寺	-16.6426
尼	-16.6426
尾	-16.6426
常	-16.6426
影	-16.6426
後	-16.6426
悟	-16.6426
括	-16.6426
敦	-16.6426
景	-16.6426
李	-16.6426
桃	-16.6426
業	-16.6426
此	-16.6426
求	-16.6426
河	-16.6426
炮	-16.6426
碼	-16.6426
秋	-16.6426
秦	-16.6426
管	-16.6426
系	-16.6426
紀	-16.6426
级	-16.6426
者	-16.6426
色	-16.6426
花	-16.6426
蜜	-16.6426
賀	-16.6426
鐵	-16.6426
间	-16.6426
陵	-16.6426
頭	-16.6426
须	-16.6426
魏	-16.6426
麻	-16.6426
ꞌ	-16.6426
견	-16.6426
결	-16.6426
나	-16.6426
내	-16.6426
례	-16.6426
른	-16.6426
름	-16.6426
메	-16.6426
미	-16.6426
순	-16.6426
열	-16.6426
올	-16.6426
음	-16.6426
적	-16.6426
페	-16.6426
포	-16.6426
한	-16.6426
𐐿	-16.6426
Ţ	-16.6426
ɨ	-16.6426
Ḫ	-16.6426
ử	-16.6426
ἑ	-16.6426
★	-16.6426
う	-16.6426
午	-16.6426
夫	-16.6426
市	-16.6426
气	-16.6426
町	-16.6426
福	-16.6426
韓	-16.6426
Ă	-16.6426
ĺ	-16.6426
भ	-16.6426
அ	-16.6426
జ	-16.6426
ಬ	-16.6426
ბ	-16.6426
△	-16.6426
「	-16.6426
っ	-16.6426
宮	-16.6426
息	-16.6426
慧	-16.6426
比	-16.6426
池	-16.6426
致	-16.6426
興	-16.6426
言	-16.6426
询	-16.6426
郎	-16.6426
격	-16.6426
버	-16.6426
승	-16.6426
해	-16.6426
¶	-16.6426
յ	-16.6426
ভ	-16.6426
ূ	-16.6426
ం	-16.6426
ವ	-16.6426
സ	-16.6426
ป	-16.6426
დ	-16.6426
ព	-16.6426
ះ	-16.6426
お	-16.6426
か	-16.6426
な	-16.6426
れ	-16.6426
ゲ	-16.6426
ダ	-16.6426
前	-16.6426
古	-16.6426
型	-16.6426
改	-16.6426
星	-16.6426
木	-16.6426
标	-16.6426
極	-16.6426
真	-16.6426
第	-16.6426
类	-16.6426
近	-16.6426
选	-16.6426
俠	-16.6426
ช	-16.6426
ク	-16.6426
チ	-16.6426
填	-16.6426
待	-16.6426
支	-16.6426
肥	-16.6426
限	-16.6426
ุ	-16.6426
只	-16.6426
君	-16.6426
含	-16.6426
造	-16.6426
ล	-16.6426
报	-16.6426
疆	-16.6426
弟	-16.6427
利	-16.6427
短	-16.6427
▄	-17.1425
其	-17.1425
过	-17.1425
គ	-17.1426
ソ	-17.1426
ョ	-17.1426
អ	-17.1426
ិ	-17.1426
ី	-17.1426
់	-17.1426
免	-17.1426
结	-17.1426
პ	-17.1426
٩	-17.1426
ಡ	-17.1426
ื	-17.1426
้	-17.1426
ᐊ	-17.1426
ᓗ	-17.1426
Ἄ	-17.1426
Ἠ	-17.1426
さ	-17.1426
及	-17.1426
巨	-17.1426
気	-17.1426
认	-17.1426
접	-17.1426
⇘	-17.1426
肉	-17.1426
Ǝ	-17.1426
ɖ	-17.1426
Ά	-17.1426
ੁ	-17.1426
ੱ	-17.1426
ந	-17.1426
ప	-17.1426
Ṡ	-17.1426
Ἡ	-17.1426
ᾰ	-17.1426
吒	-17.1426
宝	-17.1426
島	-17.1426
嶼	-17.1426
州	-17.1426
左	-17.1426
康	-17.1426
忌	-17.1426
戦	-17.1426
智	-17.1426
松	-17.1426
盤	-17.1426
緒	-17.1426
草	-17.1426
菅	-17.1426
野	-17.1426
백	-17.1426
약	-17.1426
어	-17.1426
예	-17.1426
Ř	-17.1426
Ё	-17.1426
қ	-17.1426
ذ	-17.1426
ḃ	-17.1426
ự	-17.1426
╗	-17.1426
つ	-17.1426
京	-17.1426
华	-17.1426
城	-17.1426
官	-17.1426
富	-17.1426
护	-17.1426
施	-17.1426
汝	-17.1426
顺	-17.1426
노	-17.1426
무	-17.1426
숙	-17.1426
¤	-17.1426
¿	-17.1426
Ù	-17.1426
Ė	-17.1426
Ę	-17.1426
Ń	-17.1426
Ņ	-17.1426
Ň	-17.1426
Ŷ	-17.1426
Ɔ	-17.1426
Ɲ	-17.1426
ƴ	-17.1426
Ǎ	-17.1426
Ǐ	-17.1426
ǘ	-17.1426
ǚ	-17.1426
ǟ	-17.1426
ȝ	-17.1426
ȟ	-17.1426
Ƞ	-17.1426
ɒ	-17.1426
ɓ	-17.1426
ɕ	-17.1426
ɚ	-17.1426
ɴ	-17.1426
ɹ	-17.1426
ɻ	-17.1426
ʋ	-17.1426
ʺ	-17.1426
ˀ	-17.1426
ˆ	-17.1426
ˇ	-17.1426
ˋ	-17.1426
̇	-17.1426
̒	-17.1426
̧	-17.1426
̩	-17.1426
̲	-17.1426
̸	-17.1426
ϋ	-17.1426
ϣ	-17.1426
ϩ	-17.1426
Ո	-17.1426
Վ	-17.1426
գ	-17.1426
ը	-17.1426
ս	-17.1426
վ	-17.1426
ց	-17.1426
օ	-17.1426
ֆ	-17.1426
ٱ	-17.1426
ܒ	-17.1426
ܘ	-17.1426
ߜ	-17.1426
ृ	-17.1426
ਆ	-17.1426
ਈ	-17.1426
ਚ	-17.1426
ਟ	-17.1426
ਣ	-17.1426
ਭ	-17.1426
છ	-17.1426
ે	-17.1426
ಧ	-17.1426
ಮ	-17.1426
ೆ	-17.1426
മ	-17.1426
൰	-17.1426
අ	-17.1426
ද	-17.1426
්	-17.1426
๏	-17.1426
ར	-17.1426
ས	-17.1426
ོ	-17.1426
ზ	-17.1426
მ	-17.1426
ც	-17.1426
ᄆ	-17.1426
ᆔ	-17.1426
ሚ	-17.1426
ዕ	-17.1426
ይ	-17.1426
ጣ	-17.1426
ᑦ	-17.1426
ᚹ	-17.1426
ᛟ	-17.1426
ា	-17.1426
ᶎ	-17.1426
᷄	-17.1426
᷊	-17.1426
Ḟ	-17.1426
ḡ	-17.1426
Ḵ	-17.1426
ṉ	-17.1426
ṽ	-17.1426
Ẇ	-17.1426
ẫ	-17.1426
ằ	-17.1426
ẵ	-17.1426
ở	-17.1426
ợ	-17.1426
ἴ	-17.1426
Ἴ	-17.1426
ὴ	-17.1426
ῃ	-17.1426
ῷ	-17.1426
₦	-17.1426
₪	-17.1426
₫	-17.1426
₱	-17.1426
₴	-17.1426
₸	-17.1426
↦	-17.1426
⇗	-17.1426
∉	-17.1426
∎	-17.1426
∝	-17.1426
∠	-17.1426
∥	-17.1426
∫	-17.1426
≅	-17.1426
≫	-17.1426
≼	-17.1426
⊊	-17.1426
⊋	-17.1426
⊥	-17.1426
⌈	-17.1426
⌉	-17.1426
⍋	-17.1426
⏓	-17.1426
╝	-17.1426
□	-17.1426
♀	-17.1426
⫽	-17.1426
ⴰ	-17.1426
ⵍ	-17.1426
々	-17.1426
ず	-17.1426
づ	-17.1426
ば	-17.1426
も	-17.1426
ゅ	-17.1426
ゴ	-17.1426
デ	-17.1426
ヌ	-17.1426
ネ	-17.1426
ピ	-17.1426
ポ	-17.1426
マ	-17.1426
モ	-17.1426
ロ	-17.1426
也	-17.1426
交	-17.1426
令	-17.1426
例	-17.1426
侯	-17.1426
儒	-17.1426
兩	-17.1426
击	-17.1426
列	-17.1426
初	-17.1426
加	-17.1426
區	-17.1426
单	-17.1426
口	-17.1426
司	-17.1426
吐	-17.1426
咒	-17.1426
商	-17.1426
嗣	-17.1426
因	-17.1426
堂	-17.1426
場	-17.1426
奥	-17.1426
好	-17.1426
妊	-17.1426
孔	-17.1426
宫	-17.1426
少	-17.1426
居	-17.1426
屈	-17.1426
廃	-17.1426
形	-17.1426
德	-17.1426
总	-17.1426
惟	-17.1426
意	-17.1426
愛	-17.1426
慶	-17.1426
描	-17.1426
提	-17.1426
春	-17.1426
普	-17.1426
暦	-17.1426
會	-17.1426
朱	-17.1426
村	-17.1426
柱	-17.1426
案	-17.1426
楷	-17.1426
楼	-17.1426
槑	-17.1426
歌	-17.1426
氣	-17.1426
汗	-17.1426
泡	-17.1426
済	-17.1426
温	-17.1426
漢	-17.1426
澄	-17.1426
燈	-17.1426
牌	-17.1426
牧	-17.1426
率	-17.1426
琴	-17.1426
發	-17.1426
砲	-17.1426
示	-17.1426
突	-17.1426
紅	-17.1426
経	-17.1426
經	-17.1426
継	-17.1426
羊	-17.1426
美	-17.1426
臣	-17.1426
若	-17.1426
茶	-17.1426
莊	-17.1426
获	-17.1426
華	-17.1426
萨	-17.1426
落	-17.1426
葛	-17.1426
虎	-17.1426
血	-17.1426
術	-17.1426
覧	-17.1426
訓	-17.1426
豚	-17.1426
起	-17.1426
趙	-17.1426
辞	-17.1426
运	-17.1426
述	-17.1426
都	-17.1426
釋	-17.1426
鑑	-17.1426
鑒	-17.1426
閭	-17.1426
降	-17.1426
陳	-17.1426
雅	-17.1426
靈	-17.1426
順	-17.1426
類	-17.1426
飯	-17.1426
館	-17.1426
马	-17.1426
骨	-17.1426
鮮	-17.1426
麿	-17.1426
黄	-17.1426
龍	-17.1426
Ʞ	-17.1426
Ᶎ	-17.1426
궁	-17.1426
급	-17.1426
꽃	-17.1426
너	-17.1426
뉴	-17.1426
들	-17.1426
등	-17.1426
레	-17.1426
로	-17.1426
림	-17.1426
릿	-17.1426
뭐	-17.1426
불	-17.1426
비	-17.1426
빨	-17.1426
빵	-17.1426
솥	-17.1426
안	-17.1426
야	-17.1426
양	-17.1426
우	-17.1426
유	-17.1426
절	-17.1426
중	-17.1426
찬	-17.1426
충	-17.1426
치	-17.1426
토	-17.1426
했	-17.1426
화	-17.1426
확	-17.1426
︡	-17.1426
𐌄	-17.1426
𐌐	-17.1426
𐐫	-17.1426
𐑀	-17.1426
𐑁	-17.1426
𐤍	-17.1426
𒀀	-17.1426
𒊭	-17.1426
𓈖	-17.1426
Ļ	-17.1426
ȑ	-17.1426
ቀ	-17.1426
厳	-17.1426
屋	-17.1426
打	-17.1426
斗	-17.1426
旋	-17.1426
沢	-17.1426
洞	-17.1426
湯	-17.1426
笛	-17.1426
線	-17.1426
肇	-17.1426
身	-17.1426
酒	-17.1426
集	-17.1426
魚	-17.1426
복	-17.1426
︠	-17.1426
ظ	-17.1426
ਯ	-17.1426
వ	-17.1426
ಕ	-17.1426
ባ	-17.1426
ṟ	-17.1426
ῳ	-17.1426
ハ	-17.1426
ペ	-17.1426
万	-17.1426
久	-17.1426
体	-17.1426
佛	-17.1426
共	-17.1426
刑	-17.1426
助	-17.1426
宅	-17.1426
師	-17.1426
忍	-17.1426
械	-17.1426
沙	-17.1426
深	-17.1426
為	-17.1426
照	-17.1426
純	-17.1426
覚	-17.1426
분	-17.1426
연	-17.1426
하	-17.1426
Ὁ	-17.1426
ղ	-17.1426
ਮ	-17.1426
ண	-17.1426
ხ	-17.1426
ካ	-17.1426
ᚦ	-17.1426
∊	-17.1426
╔	-17.1426
╚	-17.1426
み	-17.1426
め	-17.1426
ら	-17.1426
专	-17.1426
业	-17.1426
册	-17.1426
函	-17.1426
址	-17.1426
境	-17.1426
弘	-17.1426
态	-17.1426
据	-17.1426
注	-17.1426
目	-17.1426
礎	-17.1426
秀	-17.1426
算	-17.1426
账	-17.1426
送	-17.1426
避	-17.1426
람	-17.1426
已	-17.1426
ค	-17.1426
ธ	-17.1426
์	-17.1426
グ	-17.1426
尔	-17.1426
并	-17.1426
更	-17.1426
最	-17.1426
果	-17.1426
环	-17.1426
试	-17.1426
长	-17.1426
解	-17.1426
严	-17.1426
关	-17.1426
应	-17.1426
持	-17.1426
换	-17.1426
族	-17.1426
权	-17.1426
對	-17.1427
賦	-17.1427
动	-17.1427
嚴	-17.1427
由	-17.1428
而	-17.1428
ി	-18.14
ല	-18.1401
ക	-18.1402
അ	-18.1403
═	-18.1404
空	-18.1405
ੈ	-18.1406
종	-18.1407
관	-18.1408
ớ	-18.1409
ề	-18.141
Ṛ	-18.1411
ை	-18.1412
়	-18.1413
았	-18.1414
송	-18.1415
명	-18.1416
符	-18.1417
͟	-18.1418
않	-18.1419
습	-18.142
÷	-18.1421
„	-18.1422
ƒ	-18.1423
입	-18.1424
且	-18.1425
议	-18.1425
超	-18.1425
ோ	-18.1425
说	-18.1425
░	-18.1425
থ	-18.1426
ள	-18.1426
ผ	-18.1426
串	-18.1426
展	-18.1426
执	-18.1426
扩	-18.1426
搜	-18.1426
放	-18.1426
望	-18.1426
束	-18.1426
素	-18.1426
联	-18.1426
艾	-18.1426
输	-18.1426
这	-18.1426
邦	-18.1426
鐸	-18.1426
需	-18.1426
默	-18.1426
उ	-18.1426
ణ	-18.1426
ಸ	-18.1426
ศ	-18.1426
แ	-18.1426
ํ	-18.1426
ᑲ	-18.1426
ᒥ	-18.1426
ᕈ	-18.1426
円	-18.1426
卫	-18.1426
印	-18.1426
哪	-18.1426
株	-18.1426
边	-18.1426
魔	-18.1426
광	-18.1426
Ƿ	-18.1426
آ	-18.1426
ٍ	-18.1426
ګ	-18.1426
ݢ	-18.1426
घ	-18.1426
ौ	-18.1426
উ	-18.1426
భ	-18.1426
ూ	-18.1426
ಂ	-18.1426
ಜ	-18.1426
ᅱ	-18.1426
ቢ	-18.1426
ᶘ	-18.1426
ṿ	-18.1426
ἂ	-18.1426
ἆ	-18.1426
ἵ	-18.1426
Ἵ	-18.1426
ⴼ	-18.1426
ざ	-18.1426
丁	-18.1426
于	-18.1426
佐	-18.1426
兴	-18.1426
冬	-18.1426
寄	-18.1426
崔	-18.1426
工	-18.1426
得	-18.1426
悉	-18.1426
拌	-18.1426
拼	-18.1426
欧	-18.1426
泊	-18.1426
瀬	-18.1426
瓜	-18.1426
眼	-18.1426
粟	-18.1426
號	-18.1426
衍	-18.1426
衛	-18.1426
赤	-18.1426
軍	-18.1426
醫	-18.1426
门	-18.1426
阳	-18.1426
雁	-18.1426
鶻	-18.1426
鸕	-18.1426
북	-18.1426
색	-18.1426
쇠	-18.1426
역	-18.1426
운	-18.1426
Ĉ	-18.1426
ɷ	-18.1426
ங	-18.1426
ச	-18.1426
ஞ	-18.1426
ல	-18.1426
ᅥ	-18.1426
ላ	-18.1426
ἦ	-18.1426
₵	-18.1426
勵	-18.1426
洋	-18.1426
甜	-18.1426
糕	-18.1426
結	-18.1426
給	-18.1426
聖	-18.1426
虔	-18.1426
锡	-18.1426
雜	-18.1426
鵺	-18.1426
망	-18.1426
ᅀ	-18.1426
Ë	-18.1426
Ï	-18.1426
Õ	-18.1426
Û	-18.1426
Ĝ	-18.1426
ĥ	-18.1426
Į	-18.1426
ĵ	-18.1426
Ķ	-18.1426
ŗ	-18.1426
Ŭ	-18.1426
Ų	-18.1426
Ŵ	-18.1426
Ÿ	-18.1426
Ƌ	-18.1426
ƌ	-18.1426
Ə	-18.1426
Ɛ	-18.1426
ƛ	-18.1426
Ɯ	-18.1426
ƞ	-18.1426
Ơ	-18.1426
Ƣ	-18.1426
ƣ	-18.1426
Ƨ	-18.1426
ƨ	-18.1426
ƭ	-18.1426
Ƶ	-18.1426
ƶ	-18.1426
Ʒ	-18.1426
Ǒ	-18.1426
Ǔ	-18.1426
Ǚ	-18.1426
Ǜ	-18.1426
Ǟ	-18.1426
Ǡ	-18.1426
ǡ	-18.1426
Ǫ	-18.1426
ǭ	-18.1426
ǰ	-18.1426
Ǹ	-18.1426
ǹ	-18.1426
Ǻ	-18.1426
ǻ	-18.1426
ǽ	-18.1426
ǿ	-18.1426
Ȁ	-18.1426
Ȃ	-18.1426
ȋ	-18.1426
ȓ	-18.1426
ȡ	-18.1426
Ȣ	-18.1426
Ȧ	-18.1426
ȧ	-18.1426
ȭ	-18.1426
ȯ	-18.1426
ȱ	-18.1426
Ⱥ	-18.1426
ɀ	-18.1426
Ʌ	-18.1426
ɤ	-18.1426
ɥ	-18.1426
ʇ	-18.1426
ʍ	-18.1426
ʏ	-18.1426
ʞ	-18.1426
ʧ	-18.1426
ˊ	-18.1426
ˎ	-18.1426
ˏ	-18.1426
˞	-18.1426
̋	-18.1426
̌	-18.1426
̍	-18.1426
̏	-18.1426
̞	-18.1426
̠	-18.1426
̨	-18.1426
̵	-18.1426
̷	-18.1426
͂	-18.1426
͝	-18.1426
ͦ	-18.1426
Ͱ	-18.1426
ΐ	-18.1426
Ϙ	-18.1426
ϛ	-18.1426
Ϫ	-18.1426
϶	-18.1426
Ї	-18.1426
Ј	-18.1426
Щ	-18.1426
ѐ	-18.1426
ќ	-18.1426
Ѣ	-18.1426
Ѵ	-18.1426
ѵ	-18.1426
҃	-18.1426
ґ	-18.1426
Ү	-18.1426
ө	-18.1426
Է	-18.1426
բ	-18.1426
զ	-18.1426
թ	-18.1426
կ	-18.1426
հ	-18.1426
շ	-18.1426
֔	-18.1426
֣	-18.1426
ֻ	-18.1426
ً	-18.1426
٠	-18.1426
١	-18.1426
٢	-18.1426
٣	-18.1426
٤	-18.1426
٥	-18.1426
٦	-18.1426
٧	-18.1426
٨	-18.1426
ں	-18.1426
ھ	-18.1426
ے	-18.1426
ۖ	-18.1426
۝	-18.1426
۞	-18.1426
۶	-18.1426
ܓ	-18.1426
ܗ	-18.1426
ܙ	-18.1426
ܚ	-18.1426
ܣ	-18.1426
ܩ	-18.1426
ܰ	-18.1426
ߒ	-18.1426
ߖ	-18.1426
ߗ	-18.1426
ߘ	-18.1426
ߡ	-18.1426
ߣ	-18.1426
߫	-18.1426
߬	-18.1426
߰	-18.1426
ँ	-18.1426
इ	-18.1426
ई	-18.1426
औ	-18.1426
छ	-18.1426
॥	-18.1426
ং	-18.1426
ঙ	-18.1426
ড	-18.1426
প	-18.1426
শ	-18.1426
ৱ	-18.1426
ਔ	-18.1426
ਡ	-18.1426
ਢ	-18.1426
ਥ	-18.1426
਼	-18.1426
ੲ	-18.1426
ੳ	-18.1426
ஃ	-18.1426
ூ	-18.1426
ெ	-18.1426
ே	-18.1426
ఆ	-18.1426
ఐ	-18.1426
ఔ	-18.1426
ఖ	-18.1426
ఞ	-18.1426
ట	-18.1426
డ	-18.1426
య	-18.1426
స	-18.1426
ో	-18.1426
ಅ	-18.1426
ಇ	-18.1426
ಈ	-18.1426
ಎ	-18.1426
ಏ	-18.1426
ಗ	-18.1426
ತ	-18.1426
ನ	-18.1426
ಭ	-18.1426
ಯ	-18.1426
ಲ	-18.1426
ಳ	-18.1426
ೂ	-18.1426
ೃ	-18.1426
ೊ	-18.1426
ര	-18.1426
ാ	-18.1426
ു	-18.1426
െ	-18.1426
ോ	-18.1426
൨	-18.1426
൩	-18.1426
ත	-18.1426
ර	-18.1426
ල	-18.1426
ව	-18.1426
ถ	-18.1426
ู	-18.1426
่	-18.1426
ག	-18.1426
ད	-18.1426
ན	-18.1426
པ	-18.1426
ཟ	-18.1426
འ	-18.1426
ཤ	-18.1426
ུ	-18.1426
ེ	-18.1426
ྂ	-18.1426
ྩ	-18.1426
ྲ	-18.1426
ჰ	-18.1426
ᄌ	-18.1426
ᄑ	-18.1426
ᄒ	-18.1426
ᅡ	-18.1426
ᅢ	-18.1426
ᆈ	-18.1426
ል	-18.1426
ም	-18.1426
ር	-18.1426
ሻ	-18.1426
በ	-18.1426
ታ	-18.1426
ኒ	-18.1426
ዋ	-18.1426
ዩ	-18.1426
ያ	-18.1426
ዲ	-18.1426
ጅ	-18.1426
ገ	-18.1426
ጊ	-18.1426
ጎ	-18.1426
ጠ	-18.1426
ጥ	-18.1426
ጽ	-18.1426
Ꭴ	-18.1426
Ꭿ	-18.1426
Ꮃ	-18.1426
Ꮑ	-18.1426
ᐤ	-18.1426
ᑯ	-18.1426
ᒣ	-18.1426
ᓄ	-18.1426
ᓇ	-18.1426
ᓯ	-18.1426
ᓱ	-18.1426
ᔅ	-18.1426
ᖃ	-18.1426
ᚨ	-18.1426
ᛉ	-18.1426
ᛚ	-18.1426
᛭	-18.1426
ក	-18.1426
ត	-18.1426
ន	-18.1426
ហ	-18.1426
ែ	-18.1426
៉	-18.1426
ᣙ	-18.1426
ᴜ	-18.1426
ᴥ	-18.1426
ᵮ	-18.1426
ᵰ	-18.1426
ᵶ	-18.1426
ᵷ	-18.1426
ᶅ	-18.1426
ᶇ	-18.1426
ᶏ	-18.1426
Ḁ	-18.1426
ḁ	-18.1426
ḟ	-18.1426
Ṁ	-18.1426
Ṅ	-18.1426
Ṉ	-18.1426
Ṋ	-18.1426
ṋ	-18.1426
ṕ	-18.1426
ṙ	-18.1426
Ṫ	-18.1426
ṱ	-18.1426
Ẁ	-18.1426
ẁ	-18.1426
Ẃ	-18.1426
ẃ	-18.1426
Ẅ	-18.1426
ẅ	-18.1426
ẇ	-18.1426
Ẉ	-18.1426
ẉ	-18.1426
Ẋ	-18.1426
Ẑ	-18.1426
Ẕ	-18.1426
ẕ	-18.1426
ẘ	-18.1426
Ạ	-18.1426
Ả	-18.1426
Ấ	-18.1426
Ầ	-18.1426
Ẩ	-18.1426
Ẫ	-18.1426
Ậ	-18.1426
Ắ	-18.1426
Ằ	-18.1426
Ẳ	-18.1426
ẳ	-18.1426
Ẵ	-18.1426
Ặ	-18.1426
ẻ	-18.1426
ỉ	-18.1426
ỏ	-18.1426
ỡ	-18.1426
Ủ	-18.1426
ỵ	-18.1426
ỷ	-18.1426
Ỽ	-18.1426
ỽ	-18.1426
Ỿ	-18.1426
ỿ	-18.1426
ἅ	-18.1426
Ἁ	-18.1426
ἤ	-18.1426
Ἢ	-18.1426
ὗ	-18.1426
ὲ	-18.1426
ᾳ	-18.1426
ᾼ	-18.1426
ῌ	-18.1426
Ῥ	-18.1426
ῼ	-18.1426
‚	-18.1426
‬	-18.1426
⁑	-18.1426
⁔	-18.1426
⁙	-18.1426
₡	-18.1426
₣	-18.1426
₮	-18.1426
₷	-18.1426
℟	-18.1426
℺	-18.1426
≘	-18.1426
≳	-18.1426
⊄	-18.1426
⊅	-18.1426
⊇	-18.1426
⊖	-18.1426
⊤	-18.1426
⌀	-18.1426
⌃	-18.1426
⌽	-18.1426
⌿	-18.1426
⍨	-18.1426
⍳	-18.1426
⍺	-18.1426
─	-18.1426
■	-18.1426
▪	-18.1426
▫	-18.1426
◊	-18.1426
○	-18.1426
☆	-18.1426
☥	-18.1426
☪	-18.1426
☰	-18.1426
☲	-18.1426
☴	-18.1426
☶	-18.1426
☺	-18.1426
♃	-18.1426
♆	-18.1426
♈	-18.1426
♌	-18.1426
♏	-18.1426
♐	-18.1426
♒	-18.1426
♪	-18.1426
♮	-18.1426
⚀	-18.1426
⚁	-18.1426
⚂	-18.1426
⚃	-18.1426
⚄	-18.1426
⚅	-18.1426
⚓	-18.1426
⚤	-18.1426
⚲	-18.1426
✪	-18.1426
Ⰶ	-18.1426
ⱥ	-18.1426
Ⱬ	-18.1426
ⱬ	-18.1426
Ɑ	-18.1426
Ɱ	-18.1426
Ɐ	-18.1426
Ⱶ	-18.1426
ⱶ	-18.1426
Ɀ	-18.1426
ⴻ	-18.1426
ⵉ	-18.1426
ⵏ	-18.1426
〜	-18.1426
く	-18.1426
ぱ	-18.1426
び	-18.1426
ぴ	-18.1426
む	-18.1426
ゆ	-18.1426
ょ	-18.1426
ゐ	-18.1426
ゑ	-18.1426
を	-18.1426
ゔ	-18.1426
゙	-18.1426
ゥ	-18.1426
ォ	-18.1426
ガ	-18.1426
セ	-18.1426
タ	-18.1426
ニ	-18.1426
ヒ	-18.1426
ホ	-18.1426
ボ	-18.1426
ュ	-18.1426
ワ	-18.1426
ヷ	-18.1426
ヸ	-18.1426
ヹ	-18.1426
ヺ	-18.1426
ヽ	-18.1426
ヾ	-18.1426
ㄉ	-18.1426
ㄠ	-18.1426
东	-18.1426
两	-18.1426
丹	-18.1426
义	-18.1426
乳	-18.1426
亂	-18.1426
了	-18.1426
予	-18.1426
互	-18.1426
亚	-18.1426
亞	-18.1426
享	-18.1426
亭	-18.1426
亮	-18.1426
今	-18.1426
介	-18.1426
仏	-18.1426
仕	-18.1426
仝	-18.1426
仟	-18.1426
任	-18.1426
伍	-18.1426
伯	-18.1426
但	-18.1426
何	-18.1426
佳	-18.1426
來	-18.1426
侠	-18.1426
俱	-18.1426
倒	-18.1426
偕	-18.1426
僧	-18.1426
價	-18.1426
億	-18.1426
儿	-18.1426
充	-18.1426
兒	-18.1426
內	-18.1426
兮	-18.1426
军	-18.1426
冷	-18.1426
准	-18.1426
刊	-18.1426
创	-18.1426
券	-18.1426
刹	-18.1426
則	-18.1426
剣	-18.1426
力	-18.1426
功	-18.1426
勇	-18.1426
勒	-18.1426
勤	-18.1426
勳	-18.1426
匱	-18.1426
医	-18.1426
升	-18.1426
卑	-18.1426
卒	-18.1426
博	-18.1426
卣	-18.1426
即	-18.1426
卷	-18.1426
历	-18.1426
厚	-18.1426
厥	-18.1426
參	-18.1426
向	-18.1426
吳	-18.1426
吹	-18.1426
吻	-18.1426
呆	-18.1426
告	-18.1426
品	-18.1426
响	-18.1426
哲	-18.1426
唱	-18.1426
唹	-18.1426
啞	-18.1426
喧	-18.1426
嘉	-18.1426
囎	-18.1426
囗	-18.1426
四	-18.1426
固	-18.1426
图	-18.1426
圖	-18.1426
圭	-18.1426
塩	-18.1426
增	-18.1426
壊	-18.1426
声	-18.1426
売	-18.1426
备	-18.1426
奋	-18.1426
套	-18.1426
奴	-18.1426
妍	-18.1426
妹	-18.1426
姉	-18.1426
威	-18.1426
媽	-18.1426
嬉	-18.1426
存	-18.1426
孫	-18.1426
宇	-18.1426
宏	-18.1426
宙	-18.1426
宛	-18.1426
实	-18.1426
宵	-18.1426
容	-18.1426
宾	-18.1426
寇	-18.1426
寒	-18.1426
實	-18.1426
寶	-18.1426
専	-18.1426
射	-18.1426
將	-18.1426
尉	-18.1426
尸	-18.1426
岑	-18.1426
岛	-18.1426
岩	-18.1426
岭	-18.1426
岳	-18.1426
峡	-18.1426
峨	-18.1426
崩	-18.1426
崮	-18.1426
嵯	-18.1426
巣	-18.1426
帅	-18.1426
帐	-18.1426
帥	-18.1426
帳	-18.1426
広	-18.1426
庆	-18.1426
序	-18.1426
店	-18.1426
庫	-18.1426
廠	-18.1426
延	-18.1426
弁	-18.1426
弓	-18.1426
彦	-18.1426
彰	-18.1426
彼	-18.1426
志	-18.1426
思	-18.1426
怪	-18.1426
恒	-18.1426
您	-18.1426
情	-18.1426
惠	-18.1426
懸	-18.1426
戈	-18.1426
戎	-18.1426
战	-18.1426
戟	-18.1426
戸	-18.1426
扬	-18.1426
扭	-18.1426
承	-18.1426
技	-18.1426
抄	-18.1426
投	-18.1426
折	-18.1426
拉	-18.1426
拜	-18.1426
拾	-18.1426
指	-18.1426
振	-18.1426
授	-18.1426
排	-18.1426
擊	-18.1426
操	-18.1426
敬	-18.1426
數	-18.1426
斋	-18.1426
斎	-18.1426
料	-18.1426
斯	-18.1426
旧	-18.1426
旨	-18.1426
昌	-18.1426
易	-18.1426
昭	-18.1426
昱	-18.1426
時	-18.1426
晚	-18.1426
晦	-18.1426
晴	-18.1426
曲	-18.1426
曾	-18.1426
末	-18.1426
朵	-18.1426
杉	-18.1426
杏	-18.1426
杜	-18.1426
杞	-18.1426
杲	-18.1426
柔	-18.1426
柳	-18.1426
査	-18.1426
柿	-18.1426
栄	-18.1426
根	-18.1426
框	-18.1426
桥	-18.1426
梁	-18.1426
梅	-18.1426
森	-18.1426
楚	-18.1426
様	-18.1426
樹	-18.1426
機	-18.1426
檔	-18.1426
歐	-18.1426
步	-18.1426
歩	-18.1426
歷	-18.1426
毀	-18.1426
母	-18.1426
毛	-18.1426
氵	-18.1426
江	-18.1426
汤	-18.1426
汪	-18.1426
汴	-18.1426
沃	-18.1426
油	-18.1426
況	-18.1426
泉	-18.1426
泰	-18.1426
津	-18.1426
消	-18.1426
涌	-18.1426
淵	-18.1426
渡	-18.1426
游	-18.1426
瀨	-18.1426
火	-18.1426
灯	-18.1426
点	-18.1426
焼	-18.1426
煎	-18.1426
熜	-18.1426
熟	-18.1426
燕	-18.1426
燮	-18.1426
爛	-18.1426
爱	-18.1426
爾	-18.1426
犀	-18.1426
犬	-18.1426
状	-18.1426
狄	-18.1426
狗	-18.1426
玗	-18.1426
玛	-18.1426
珍	-18.1426
球	-18.1426
琪	-18.1426
申	-18.1426
电	-18.1426
界	-18.1426
番	-18.1426
疹	-18.1426
痘	-18.1426
益	-18.1426
盛	-18.1426
監	-18.1426
県	-18.1426
矟	-18.1426
知	-18.1426
破	-18.1426
磁	-18.1426
祈	-18.1426
祥	-18.1426
祭	-18.1426
禅	-18.1426
种	-18.1426
稠	-18.1426
稳	-18.1426
稻	-18.1426
積	-18.1426
童	-18.1426
筆	-18.1426
篆	-18.1426
篪	-18.1426
簡	-18.1426
籍	-18.1426
米	-18.1426
粒	-18.1426
索	-18.1426
続	-18.1426
維	-18.1426
緋	-18.1426
縣	-18.1426
總	-18.1426
繚	-18.1426
繼	-18.1426
约	-18.1426
组	-18.1426
统	-18.1426
续	-18.1426
缩	-18.1426
置	-18.1426
翁	-18.1426
考	-18.1426
耐	-18.1426
耶	-18.1426
聞	-18.1426
聯	-18.1426
聰	-18.1426
胝	-18.1426
胡	-18.1426
胤	-18.1426
脈	-18.1426
腰	-18.1426
至	-18.1426
舟	-18.1426
舩	-18.1426
般	-18.1426
艦	-18.1426
艺	-18.1426
芳	-18.1426
芸	-18.1426
苦	-18.1426
英	-18.1426
茉	-18.1426
荀	-18.1426
荊	-18.1426
莉	-18.1426
莔	-18.1426
莲	-18.1426
菜	-18.1426
营	-18.1426
萬	-18.1426
葡	-18.1426
葷	-18.1426
蒸	-18.1426
蔭	-18.1426
蕤	-18.1426
薛	-18.1426
薩	-18.1426
薯	-18.1426
藏	-18.1426
藩	-18.1426
蘆	-18.1426
蛛	-18.1426
蜘	-18.1426
表	-18.1426
袈	-18.1426
袟	-18.1426
裏	-18.1426
裟	-18.1426
襲	-18.1426
観	-18.1426
覽	-18.1426
见	-18.1426
观	-18.1426
视	-18.1426
角	-18.1426
計	-18.1426
討	-18.1426
託	-18.1426
誉	-18.1426
誠	-18.1426
說	-18.1426
説	-18.1426
読	-18.1426
證	-18.1426
譜	-18.1426
记	-18.1426
设	-18.1426
识	-18.1426
调	-18.1426
豆	-18.1426
豢	-18.1426
豪	-18.1426
豬	-18.1426
豹	-18.1426
負	-18.1426
貴	-18.1426
賜	-18.1426
赫	-18.1426
越	-18.1426
跌	-18.1426
跟	-18.1426
踊	-18.1426
蹤	-18.1426
蹴	-18.1426
車	-18.1426
軒	-18.1426
輪	-18.1426
辖	-18.1426
辛	-18.1426
辣	-18.1426
辭	-18.1426
达	-18.1426
返	-18.1426
迦	-18.1426
迷	-18.1426
追	-18.1426
退	-18.1426
适	-18.1426
速	-18.1426
逢	-18.1426
進	-18.1426
遇	-18.1426
達	-18.1426
遠	-18.1426
選	-18.1426
遺	-18.1426
邇	-18.1426
酪	-18.1426
醐	-18.1426
醤	-18.1426
釈	-18.1426
量	-18.1426
銀	-18.1426
銘	-18.1426
錄	-18.1426
錢	-18.1426
鎮	-18.1426
鏡	-18.1426
鐘	-18.1426
错	-18.1426
閇	-18.1426
開	-18.1426
関	-18.1426
闕	-18.1426
陀	-18.1426
陣	-18.1426
階	-18.1426
隐	-18.1426
隸	-18.1426
雀	-18.1426
雄	-18.1426
雙	-18.1426
離	-18.1426
靖	-18.1426
鞍	-18.1426
鞠	-18.1426
頂	-18.1426
頡	-18.1426
页	-18.1426
频	-18.1426
養	-18.1426
饌	-18.1426
饨	-18.1426
馄	-18.1426
首	-18.1426
駅	-18.1426
駒	-18.1426
駿	-18.1426
騎	-18.1426
體	-18.1426
髯	-18.1426
鶿	-18.1426
鸿	-18.1426
麦	-18.1426
麵	-18.1426
黎	-18.1426
鼠	-18.1426
齊	-18.1426
龙	-18.1426
Ꜣ	-18.1426
Ꝋ	-18.1426
ꝋ	-18.1426
Ꝟ	-18.1426
ꝟ	-18.1426
Ꝼ	-18.1426
ꝼ	-18.1426
ꞃ	-18.1426
Ꞅ	-18.1426
ꞅ	-18.1426
Ꞇ	-18.1426
ꞇ	-18.1426
꞉	-18.1426
ꞗ	-18.1426
Ꞥ	-18.1426
ꞥ	-18.1426
Ʇ	-18.1426
ꟽ	-18.1426
꩜	-18.1426
객	-18.1426
군	-18.1426
굴	-18.1426
까	-18.1426
깥	-18.1426
께	-18.1426
꼬	-18.1426
날	-18.1426
남	-18.1426
농	-18.1426
단	-18.1426
담	-18.1426
데	-18.1426
뎅	-18.1426
두	-18.1426
란	-18.1426
럼	-18.1426
렬	-18.1426
령	-18.1426
뢰	-18.1426
마	-18.1426
머	-18.1426
모	-18.1426
묵	-18.1426
받	-18.1426
밥	-18.1426
법	-18.1426
별	-18.1426
브	-18.1426
빙	-18.1426
빛	-18.1426
뽑	-18.1426
생	-18.1426
석	-18.1426
선	-18.1426
성	-18.1426
솔	-18.1426
슬	-18.1426
알	-18.1426
에	-18.1426
월	-18.1426
으	-18.1426
을	-18.1426
잉	-18.1426
잎	-18.1426
잔	-18.1426
잡	-18.1426
저	-18.1426
즉	-18.1426
집	-18.1426
찰	-18.1426
첨	-18.1426
첩	-18.1426
체	-18.1426
출	-18.1426
칠	-18.1426
침	-18.1426
탁	-18.1426
텔	-18.1426
템	-18.1426
톡	-18.1426
통	-18.1426
특	-18.1426
판	-18.1426
푸	-18.1426
품	-18.1426
플	-18.1426
피	-18.1426
학	-18.1426
향	-18.1426
황	-18.1426
️	-18.1426
𐀀	-18.1426
𐀅	-18.1426
𐀏	-18.1426
𐀩	-18.1426
𐀫	-18.1426
𐀭	-18.1426
𐅢	-18.1426
𐆃	-18.1426
𐌀	-18.1426
𐌅	-18.1426
𐌉	-18.1426
𐌋	-18.1426
𐌔	-18.1426
𐌕	-18.1426
𐌖	-18.1426
𐌗	-18.1426
𐍂	-18.1426
𐐨	-18.1426
𐐶	-18.1426
𐐷	-18.1426
𐐸	-18.1426
𐐼	-18.1426
𐐽	-18.1426
𐐾	-18.1426
𐑅	-18.1426
𐑆	-18.1426
𐑊	-18.1426
𐡅	-18.1426
𐤅	-18.1426
𐤇	-18.1426
𐤊	-18.1426
𐤌	-18.1426
𐤏	-18.1426
𒂗	-18.1426
𒃾	-18.1426
𒄿	-18.1426
𒆤	-18.1426
𒇻	-18.1426
𒈬	-18.1426
𒉺	-18.1426
𒊑	-18.1426
𒊒	-18.1426
𒋫	-18.1426
𒌷	-18.1426
𓂋	-18.1426
𓈉	-18.1426
𓏠	-18.1426
𛄟	-18.1426
팝	-18.1426
ǥ	-18.1426
Ҷ	-18.1426
ἥ	-18.1426
⎯	-18.1426
ふ	-18.1426
ベ	-18.1426
偃	-18.1426
刺	-18.1426
吉	-18.1426
宜	-18.1426
寿	-18.1426
崎	-18.1426
滋	-18.1426
漬	-18.1426
煮	-18.1426
熊	-18.1426
環	-18.1426
羽	-18.1426
聶	-18.1426
舞	-18.1426
裴	-18.1426
謙	-18.1426
镇	-18.1426
隱	-18.1426
非	-18.1426
項	-18.1426
駰	-18.1426
鬥	-18.1426
黙	-18.1426
개	-18.1426
겠	-18.1426
김	-18.1426
냉	-18.1426
최	-18.1426
튀	-18.1426
ĸ	-18.1426
Љ	-18.1426
џ	-18.1426
ғ	-18.1426
फ	-18.1426
ძ	-18.1426
Ꮕ	-18.1426
倍	-18.1426
儼	-18.1426
刃	-18.1426
勅	-18.1426
叡	-18.1426
唯	-18.1426
坂	-18.1426
奈	-18.1426
奶	-18.1426
姝	-18.1426
姣	-18.1426
娟	-18.1426
寛	-18.1426
寬	-18.1426
尺	-18.1426
崇	-18.1426
徒	-18.1426
応	-18.1426
忠	-18.1426
戌	-18.1426
户	-18.1426
援	-18.1426
桜	-18.1426
歴	-18.1426
殘	-18.1426
毗	-18.1426
氷	-18.1426
流	-18.1426
準	-18.1426
濃	-18.1426
畏	-18.1426
綏	-18.1426
編	-18.1426
荒	-18.1426
虬	-18.1426
衣	-18.1426
被	-18.1426
識	-18.1426
讚	-18.1426
醍	-18.1426
锁	-18.1426
隆	-18.1426
隴	-18.1426
韦	-18.1426
馨	-18.1426
겄	-18.1426
고	-18.1426
닭	-18.1426
료	-18.1426
삼	-18.1426
속	-18.1426
울	-18.1426
진	-18.1426
천	-18.1426
취	-18.1426
탕	-18.1426
𐡂	-18.1426
𐡃	-18.1426
𐡋	-18.1426
Ŋ	-18.1426
ఎ	-18.1426
చ	-18.1426
യ	-18.1426
็	-18.1426
ཧ	-18.1426
ྐ	-18.1426
ྨ	-18.1426
ླ	-18.1426
ྵ	-18.1426
ྺ	-18.1426
ྻ	-18.1426
ྼ	-18.1426
კ	-18.1426
შ	-18.1426
ሮ	-18.1426
ት	-18.1426
ኖ	-18.1426
ᚢ	-18.1426
ᛖ	-18.1426
ひ	-18.1426
乙	-18.1426
像	-18.1426
划	-18.1426
各	-18.1426
壼	-18.1426
急	-18.1426
死	-18.1426
獅	-18.1426
盘	-18.1426
省	-18.1426
緊	-18.1426
蒙	-18.1426
袭	-18.1426
触	-18.1426
计	-18.1426
配	-18.1426
錦	-18.1426
閨	-18.1426
際	-18.1426
電	-18.1426
鯉	-18.1426
鰭	-18.1426
鲁	-18.1426
곤	-18.1426
규	-18.1426
অ	-18.1427
ট	-18.1427
จ	-18.1427
ส	-18.1427
ห	-18.1427
ャ	-18.1427
乌	-18.1427
写	-18.1427
切	-18.1427
吾	-18.1427
員	-18.1427
委	-18.1427
封	-18.1427
尝	-18.1427
炉	-18.1427
络	-18.1427
维	-18.1427
話	-18.1427
该	-18.1427
齐	-18.1427
俺	-18.1427
並	-18.1427
们	-18.1427
係	-18.1427
應	-18.1427
每	-18.1427
赋	-18.1427
關	-18.1427
빌	-18.1427
Ș	-18.1428
們	-18.1428
權	-18.1428
到	-18.1429
Î	-18.1429
Ó	-18.143
针	-18.143
际	-18.143
